#include "magic_wand_model_data.h"


// We need to keep the data array aligned on some architectures.

#ifdef __has_attribute

#define HAVE_ATTRIBUTE(x) __has_attribute(x)

#else

#define HAVE_ATTRIBUTE(x) 0

#endif

#if HAVE_ATTRIBUTE(aligned) || (defined(__GNUC__) && !defined(__clang__))

#define DATA_ALIGN_ATTRIBUTE __attribute__((aligned(4)))

#else

#define DATA_ALIGN_ATTRIBUTE

#endif


const unsigned char g_magic_wand_model_data[] DATA_ALIGN_ATTRIBUTE = {

  // Paste the data of the char array in `src/model.cc` here
  0x08, 0x00, 0x00, 0x00, 0x54, 0x46, 0x4c, 0x33, 0x62, 0xff, 0xff, 0xff,
  0x03, 0x00, 0x00, 0x00, 0x10, 0x00, 0x00, 0x00, 0x24, 0x00, 0x00, 0x00,
  0x78, 0x00, 0x00, 0x00, 0x24, 0x00, 0x00, 0x00, 0x05, 0x00, 0x00, 0x00,
  0x78, 0x05, 0x00, 0x00, 0xb0, 0x04, 0x00, 0x00, 0xe0, 0x02, 0x00, 0x00,
  0x60, 0x02, 0x00, 0x00, 0x54, 0x01, 0x00, 0x00, 0x01, 0x00, 0x00, 0x00,
  0x78, 0x00, 0x00, 0x00, 0x13, 0x00, 0x00, 0x00, 0xd4, 0x2f, 0x00, 0x00,
  0xd0, 0x2f, 0x00, 0x00, 0xdc, 0x2e, 0x00, 0x00, 0x68, 0x2e, 0x00, 0x00,
  0xfc, 0x2d, 0x00, 0x00, 0xac, 0x11, 0x00, 0x00, 0x98, 0x10, 0x00, 0x00,
  0xbc, 0x0e, 0x00, 0x00, 0x60, 0x06, 0x00, 0x00, 0xfc, 0x05, 0x00, 0x00,
  0x78, 0x05, 0x00, 0x00, 0xa8, 0x2f, 0x00, 0x00, 0xa4, 0x2f, 0x00, 0x00,
  0xa0, 0x2f, 0x00, 0x00, 0x9c, 0x2f, 0x00, 0x00, 0x98, 0x2f, 0x00, 0x00,
  0x94, 0x2f, 0x00, 0x00, 0x90, 0x2f, 0x00, 0x00, 0x8c, 0x2f, 0x00, 0x00,
  0x0f, 0x00, 0x00, 0x00, 0x4d, 0x4c, 0x49, 0x52, 0x20, 0x43, 0x6f, 0x6e,
  0x76, 0x65, 0x72, 0x74, 0x65, 0x64, 0x2e, 0x00, 0x00, 0x00, 0x0e, 0x00,
  0x18, 0x00, 0x04, 0x00, 0x08, 0x00, 0x0c, 0x00, 0x10, 0x00, 0x14, 0x00,
  0x0e, 0x00, 0x00, 0x00, 0x14, 0x00, 0x00, 0x00, 0x5c, 0x00, 0x00, 0x00,
  0x60, 0x00, 0x00, 0x00, 0x64, 0x00, 0x00, 0x00, 0x84, 0x00, 0x00, 0x00,
  0x12, 0x00, 0x00, 0x00, 0x04, 0x2f, 0x00, 0x00, 0xa0, 0x2e, 0x00, 0x00,
  0xf8, 0x2d, 0x00, 0x00, 0x98, 0x2d, 0x00, 0x00, 0x30, 0x2d, 0x00, 0x00,
  0xdc, 0x10, 0x00, 0x00, 0xc0, 0x0f, 0x00, 0x00, 0xe4, 0x0d, 0x00, 0x00,
  0xa0, 0x05, 0x00, 0x00, 0x3c, 0x05, 0x00, 0x00, 0xb0, 0x04, 0x00, 0x00,
  0xe8, 0x03, 0x00, 0x00, 0x38, 0x03, 0x00, 0x00, 0xa4, 0x02, 0x00, 0x00,
  0x10, 0x02, 0x00, 0x00, 0x90, 0x01, 0x00, 0x00, 0xfc, 0x00, 0x00, 0x00,
  0x80, 0x00, 0x00, 0x00, 0x01, 0x00, 0x00, 0x00, 0x00, 0x00, 0x00, 0x00,
  0x01, 0x00, 0x00, 0x00, 0x11, 0x00, 0x00, 0x00, 0x08, 0x00, 0x00, 0x00,
  0x1c, 0x04, 0x00, 0x00, 0x58, 0x03, 0x00, 0x00, 0xc8, 0x02, 0x00, 0x00,
  0x24, 0x02, 0x00, 0x00, 0xac, 0x01, 0x00, 0x00, 0x10, 0x01, 0x00, 0x00,
  0x94, 0x00, 0x00, 0x00, 0x10, 0x00, 0x00, 0x00, 0x04, 0x00, 0x00, 0x00,
  0x6d, 0x61, 0x69, 0x6e, 0x00, 0x00, 0x00, 0x00, 0x8e, 0xff, 0xff, 0xff,
  0x00, 0x00, 0x00, 0x09, 0x04, 0x00, 0x00, 0x00, 0x1c, 0x00, 0x00, 0x00,
  0x10, 0x00, 0x00, 0x00, 0x04, 0x00, 0x00, 0x00, 0x4e, 0xd2, 0xff, 0xff,
  0x00, 0x00, 0x80, 0x3f, 0x01, 0x00, 0x00, 0x00, 0x11, 0x00, 0x00, 0x00,
  0x01, 0x00, 0x00, 0x00, 0x10, 0x00, 0x00, 0x00, 0xf6, 0xfb, 0xff, 0xff,
  0x00, 0x00, 0x00, 0x19, 0x01, 0x00, 0x00, 0x00, 0xce, 0xd1, 0xff, 0xff,
  0x10, 0x00, 0x00, 0x00, 0x12, 0x00, 0x00, 0x00, 0x14, 0x00, 0x00, 0x00,
  0x20, 0x00, 0x00, 0x00, 0x02, 0x00, 0x00, 0x00, 0x01, 0x00, 0x00, 0x00,
  0x03, 0x00, 0x00, 0x00, 0x08, 0x00, 0x00, 0x00, 0x49, 0x64, 0x65, 0x6e,
  0x74, 0x69, 0x74, 0x79, 0x00, 0x00, 0x00, 0x00, 0x08, 0xd2, 0xff, 0xff,
  0x00, 0x00, 0x0e, 0x00, 0x18, 0x00, 0x08, 0x00, 0x0c, 0x00, 0x10, 0x00,
  0x07, 0x00, 0x14, 0x00, 0x0e, 0x00, 0x00, 0x00, 0x00, 0x00, 0x00, 0x08,
  0x03, 0x00, 0x00, 0x00, 0x18, 0x00, 0x00, 0x00, 0x0c, 0x00, 0x00, 0x00,
  0x04, 0x00, 0x00, 0x00, 0xdc, 0xd1, 0xff, 0xff, 0x01, 0x00, 0x00, 0x00,
  0x10, 0x00, 0x00, 0x00, 0x03, 0x00, 0x00, 0x00, 0x0f, 0x00, 0x00, 0x00,
  0x05, 0x00, 0x00, 0x00, 0x02, 0x00, 0x00, 0x00, 0x46, 0xd2, 0xff, 0xff,
  0x10, 0x00, 0x00, 0x00, 0x11, 0x00, 0x00, 0x00, 0x14, 0x00, 0x00, 0x00,
  0x30, 0x00, 0x00, 0x00, 0x02, 0x00, 0x00, 0x00, 0x01, 0x00, 0x00, 0x00,
  0x03, 0x00, 0x00, 0x00, 0x1a, 0x00, 0x00, 0x00, 0x73, 0x65, 0x71, 0x75,
  0x65, 0x6e, 0x74, 0x69, 0x61, 0x6c, 0x2f, 0x64, 0x65, 0x6e, 0x73, 0x65,
  0x5f, 0x31, 0x2f, 0x42, 0x69, 0x61, 0x73, 0x41, 0x64, 0x64, 0x00, 0x00,
  0x38, 0xd2, 0xff, 0xff, 0xd6, 0xfd, 0xff, 0xff, 0x00, 0x00, 0x00, 0x08,
  0x03, 0x00, 0x00, 0x00, 0x24, 0x00, 0x00, 0x00, 0x18, 0x00, 0x00, 0x00,
  0x0c, 0x00, 0x00, 0x00, 0x00, 0x00, 0x06, 0x00, 0x08, 0x00, 0x07, 0x00,
  0x06, 0x00, 0x00, 0x00, 0x00, 0x00, 0x00, 0x01, 0x01, 0x00, 0x00, 0x00,
  0x0f, 0x00, 0x00, 0x00, 0x03, 0x00, 0x00, 0x00, 0x0e, 0x00, 0x00, 0x00,
  0x04, 0x00, 0x00, 0x00, 0x01, 0x00, 0x00, 0x00, 0xfe, 0xfc, 0xff, 0xff,
  0x00, 0x00, 0x00, 0x09, 0x01, 0x00, 0x00, 0x00, 0xd6, 0xd2, 0xff, 0xff,
  0x10, 0x00, 0x00, 0x00, 0x10, 0x00, 0x00, 0x00, 0x14, 0x00, 0x00, 0x00,
  0x2c, 0x00, 0x00, 0x00, 0x02, 0x00, 0x00, 0x00, 0x01, 0x00, 0x00, 0x00,
  0x10, 0x00, 0x00, 0x00, 0x15, 0x00, 0x00, 0x00, 0x73, 0x65, 0x71, 0x75,
  0x65, 0x6e, 0x74, 0x69, 0x61, 0x6c, 0x2f, 0x64, 0x65, 0x6e, 0x73, 0x65,
  0x2f, 0x52, 0x65, 0x6c, 0x75, 0x00, 0x00, 0x00, 0x1c, 0xd3, 0xff, 0xff,
  0x00, 0x00, 0x0a, 0x00, 0x10, 0x00, 0x04, 0x00, 0x08, 0x00, 0x0c, 0x00,
  0x0a, 0x00, 0x00, 0x00, 0x02, 0x00, 0x00, 0x00, 0x10, 0x00, 0x00, 0x00,
  0x04, 0x00, 0x00, 0x00, 0x01, 0x00, 0x00, 0x00, 0x0e, 0x00, 0x00, 0x00,
  0x02, 0x00, 0x00, 0x00, 0x0d, 0x00, 0x00, 0x00, 0x03, 0x00, 0x00, 0x00,
  0x7a, 0xfd, 0xff, 0xff, 0x00, 0x00, 0x00, 0x16, 0x01, 0x00, 0x00, 0x00,
  0x52, 0xd3, 0xff, 0xff, 0x10, 0x00, 0x00, 0x00, 0x0f, 0x00, 0x00, 0x00,
  0x14, 0x00, 0x00, 0x00, 0x30, 0x00, 0x00, 0x00, 0x02, 0x00, 0x00, 0x00,
  0x01, 0x00, 0x00, 0x00, 0x70, 0x00, 0x00, 0x00, 0x1a, 0x00, 0x00, 0x00,
  0x73, 0x65, 0x71, 0x75, 0x65, 0x6e, 0x74, 0x69, 0x61, 0x6c, 0x2f, 0x66,
  0x6c, 0x61, 0x74, 0x74, 0x65, 0x6e, 0x2f, 0x52, 0x65, 0x73, 0x68, 0x61,
  0x70, 0x65, 0x00, 0x00, 0x44, 0xd3, 0xff, 0xff, 0xe2, 0xfe, 0xff, 0xff,
  0x00, 0x00, 0x00, 0x05, 0x01, 0x00, 0x00, 0x00, 0x38, 0x00, 0x00, 0x00,
  0x2c, 0x00, 0x00, 0x00, 0x14, 0x00, 0x00, 0x00, 0x00, 0x00, 0x0e, 0x00,
  0x14, 0x00, 0x00, 0x00, 0x10, 0x00, 0x0c, 0x00, 0x08, 0x00, 0x04, 0x00,
  0x0e, 0x00, 0x00, 0x00, 0x03, 0x00, 0x00, 0x00, 0x01, 0x00, 0x00, 0x00,
  0x03, 0x00, 0x00, 0x00, 0x01, 0x00, 0x00, 0x00, 0x01, 0x00, 0x00, 0x00,
  0x0d, 0x00, 0x00, 0x00, 0x01, 0x00, 0x00, 0x00, 0x0c, 0x00, 0x00, 0x00,
  0xe2, 0xd3, 0xff, 0xff, 0x10, 0x00, 0x00, 0x00, 0x0e, 0x00, 0x00, 0x00,
  0x1c, 0x00, 0x00, 0x00, 0x40, 0x00, 0x00, 0x00, 0x04, 0x00, 0x00, 0x00,
  0x01, 0x00, 0x00, 0x00, 0x07, 0x00, 0x00, 0x00, 0x01, 0x00, 0x00, 0x00,
  0x10, 0x00, 0x00, 0x00, 0x22, 0x00, 0x00, 0x00, 0x73, 0x65, 0x71, 0x75,
  0x65, 0x6e, 0x74, 0x69, 0x61, 0x6c, 0x2f, 0x6d, 0x61, 0x78, 0x5f, 0x70,
  0x6f, 0x6f, 0x6c, 0x69, 0x6e, 0x67, 0x32, 0x64, 0x5f, 0x31, 0x2f, 0x4d,
  0x61, 0x78, 0x50, 0x6f, 0x6f, 0x6c, 0x00, 0x00, 0xe4, 0xd3, 0xff, 0xff,
  0xc2, 0xfe, 0xff, 0xff, 0x00, 0x00, 0x00, 0x01, 0x24, 0x00, 0x00, 0x00,
  0x18, 0x00, 0x00, 0x00, 0x04, 0x00, 0x00, 0x00, 0xb4, 0xfe, 0xff, 0xff,
  0x01, 0x00, 0x00, 0x00, 0x01, 0x00, 0x00, 0x00, 0x00, 0x00, 0x00, 0x01,
  0x01, 0x00, 0x00, 0x00, 0x0c, 0x00, 0x00, 0x00, 0x03, 0x00, 0x00, 0x00,
  0x0b, 0x00, 0x00, 0x00, 0x07, 0x00, 0x00, 0x00, 0x09, 0x00, 0x00, 0x00,
  0x72, 0xd4, 0xff, 0xff, 0x10, 0x00, 0x00, 0x00, 0x0d, 0x00, 0x00, 0x00,
  0x1c, 0x00, 0x00, 0x00, 0x2c, 0x00, 0x00, 0x00, 0x04, 0x00, 0x00, 0x00,
  0x01, 0x00, 0x00, 0x00, 0x15, 0x00, 0x00, 0x00, 0x01, 0x00, 0x00, 0x00,
  0x10, 0x00, 0x00, 0x00, 0x0c, 0x00, 0x00, 0x00, 0x74, 0x66, 0x6c, 0x2e,
  0x63, 0x6f, 0x6e, 0x76, 0x5f, 0x32, 0x64, 0x31, 0x00, 0x00, 0x00, 0x00,
  0xb8, 0xd4, 0xff, 0xff, 0x00, 0x00, 0x0e, 0x00, 0x1a, 0x00, 0x08, 0x00,
  0x0c, 0x00, 0x10, 0x00, 0x07, 0x00, 0x14, 0x00, 0x0e, 0x00, 0x00, 0x00,
  0x00, 0x00, 0x00, 0x05, 0x01, 0x00, 0x00, 0x00, 0x3c, 0x00, 0x00, 0x00,
  0x30, 0x00, 0x00, 0x00, 0x14, 0x00, 0x00, 0x00, 0x00, 0x00, 0x0e, 0x00,
  0x18, 0x00, 0x17, 0x00, 0x10, 0x00, 0x0c, 0x00, 0x08, 0x00, 0x04, 0x00,
  0x0e, 0x00, 0x00, 0x00, 0x03, 0x00, 0x00, 0x00, 0x03, 0x00, 0x00, 0x00,
  0x03, 0x00, 0x00, 0x00, 0x03, 0x00, 0x00, 0x00, 0x00, 0x00, 0x00, 0x01,
  0x01, 0x00, 0x00, 0x00, 0x0b, 0x00, 0x00, 0x00, 0x01, 0x00, 0x00, 0x00,
  0x0a, 0x00, 0x00, 0x00, 0x46, 0xff, 0xff, 0xff, 0x00, 0x00, 0x00, 0x11,
  0x01, 0x00, 0x00, 0x00, 0x1e, 0xd5, 0xff, 0xff, 0x10, 0x00, 0x00, 0x00,
  0x0c, 0x00, 0x00, 0x00, 0x1c, 0x00, 0x00, 0x00, 0x40, 0x00, 0x00, 0x00,
  0x04, 0x00, 0x00, 0x00, 0x01, 0x00, 0x00, 0x00, 0x15, 0x00, 0x00, 0x00,
  0x01, 0x00, 0x00, 0x00, 0x08, 0x00, 0x00, 0x00, 0x20, 0x00, 0x00, 0x00,
  0x73, 0x65, 0x71, 0x75, 0x65, 0x6e, 0x74, 0x69, 0x61, 0x6c, 0x2f, 0x6d,
  0x61, 0x78, 0x5f, 0x70, 0x6f, 0x6f, 0x6c, 0x69, 0x6e, 0x67, 0x32, 0x64,
  0x2f, 0x4d, 0x61, 0x78, 0x50, 0x6f, 0x6f, 0x6c, 0x00, 0x00, 0x00, 0x00,
  0x78, 0xd5, 0xff, 0xff, 0x00, 0x00, 0x0e, 0x00, 0x14, 0x00, 0x00, 0x00,
  0x08, 0x00, 0x0c, 0x00, 0x07, 0x00, 0x10, 0x00, 0x0e, 0x00, 0x00, 0x00,
  0x00, 0x00, 0x00, 0x01, 0x30, 0x00, 0x00, 0x00, 0x24, 0x00, 0x00, 0x00,
  0x10, 0x00, 0x00, 0x00, 0x0c, 0x00, 0x10, 0x00, 0x00, 0x00, 0x04, 0x00,
  0x08, 0x00, 0x0f, 0x00, 0x0c, 0x00, 0x00, 0x00, 0x01, 0x00, 0x00, 0x00,
  0x01, 0x00, 0x00, 0x00, 0x00, 0x00, 0x00, 0x01, 0x01, 0x00, 0x00, 0x00,
  0x0a, 0x00, 0x00, 0x00, 0x03, 0x00, 0x00, 0x00, 0x00, 0x00, 0x00, 0x00,
  0x06, 0x00, 0x00, 0x00, 0x08, 0x00, 0x00, 0x00, 0x00, 0x00, 0x0a, 0x00,
  0x0c, 0x00, 0x07, 0x00, 0x00, 0x00, 0x08, 0x00, 0x0a, 0x00, 0x00, 0x00,
  0x00, 0x00, 0x00, 0x03, 0x01, 0x00, 0x00, 0x00, 0xe2, 0xd5, 0xff, 0xff,
  0x10, 0x00, 0x00, 0x00, 0x0b, 0x00, 0x00, 0x00, 0x1c, 0x00, 0x00, 0x00,
  0x28, 0x00, 0x00, 0x00, 0x04, 0x00, 0x00, 0x00, 0x01, 0x00, 0x00, 0x00,
  0x40, 0x00, 0x00, 0x00, 0x03, 0x00, 0x00, 0x00, 0x08, 0x00, 0x00, 0x00,
  0x0b, 0x00, 0x00, 0x00, 0x74, 0x66, 0x6c, 0x2e, 0x63, 0x6f, 0x6e, 0x76,
  0x5f, 0x32, 0x64, 0x00, 0xcc, 0xd5, 0xff, 0xff, 0xc2, 0xd6, 0xff, 0xff,
  0x04, 0x00, 0x00, 0x00, 0x40, 0x00, 0x00, 0x00, 0xf8, 0x95, 0x48, 0xc0,
  0xea, 0x59, 0x36, 0xc0, 0xa3, 0xea, 0xce, 0x40, 0x19, 0xb7, 0x87, 0xbf,
  0x26, 0xbc, 0xb0, 0xbf, 0x09, 0x81, 0x5f, 0x3e, 0x3c, 0x74, 0x0b, 0x3f,
  0x4b, 0x5d, 0x43, 0xbe, 0xa8, 0xaf, 0xcf, 0xbf, 0xb6, 0x78, 0x06, 0xbd,
  0xd9, 0xfb, 0x00, 0x40, 0x52, 0xed, 0x56, 0x40, 0x09, 0x2a, 0x20, 0xc0,
  0x17, 0x54, 0x04, 0xc0, 0xf4, 0x2c, 0x62, 0x40, 0xae, 0x9f, 0x45, 0x40,
  0x6a, 0xd6, 0xff, 0xff, 0x10, 0x00, 0x00, 0x00, 0x0a, 0x00, 0x00, 0x00,
  0x10, 0x00, 0x00, 0x00, 0x20, 0x00, 0x00, 0x00, 0x01, 0x00, 0x00, 0x00,
  0x10, 0x00, 0x00, 0x00, 0x0d, 0x00, 0x00, 0x00, 0x73, 0x74, 0x64, 0x2e,
  0x63, 0x6f, 0x6e, 0x73, 0x74, 0x61, 0x6e, 0x74, 0x31, 0x00, 0x00, 0x00,
  0x4c, 0xd6, 0xff, 0xff, 0x42, 0xd7, 0xff, 0xff, 0x04, 0x00, 0x00, 0x00,
  0x20, 0x00, 0x00, 0x00, 0xa8, 0xde, 0xfe, 0xbf, 0x49, 0x22, 0x1c, 0xc0,
  0x02, 0x60, 0x9f, 0xbf, 0xeb, 0x1c, 0x78, 0xc0, 0x9b, 0xe5, 0x95, 0xbc,
  0xad, 0xb0, 0xec, 0xbf, 0xac, 0x85, 0x48, 0xbd, 0x2a, 0x9f, 0x1b, 0x3b,
  0xca, 0xd6, 0xff, 0xff, 0x10, 0x00, 0x00, 0x00, 0x09, 0x00, 0x00, 0x00,
  0x10, 0x00, 0x00, 0x00, 0x20, 0x00, 0x00, 0x00, 0x01, 0x00, 0x00, 0x00,
  0x08, 0x00, 0x00, 0x00, 0x0c, 0x00, 0x00, 0x00, 0x73, 0x74, 0x64, 0x2e,
  0x63, 0x6f, 0x6e, 0x73, 0x74, 0x61, 0x6e, 0x74, 0x00, 0x00, 0x00, 0x00,
  0xac, 0xd6, 0xff, 0xff, 0xa2, 0xd7, 0xff, 0xff, 0x04, 0x00, 0x00, 0x00,
  0x00, 0x08, 0x00, 0x00, 0x50, 0x0f, 0x49, 0xbf, 0xf1, 0xad, 0x56, 0xbe,
  0x7e, 0x2f, 0x77, 0xbe, 0xe5, 0x62, 0xf4, 0xbe, 0x58, 0xaf, 0xa0, 0xbc,
  0x65, 0xae, 0xe9, 0xbe, 0x62, 0x82, 0xa6, 0xbd, 0x2d, 0x96, 0x1f, 0xbe,
  0xf1, 0xe5, 0x1b, 0xbd, 0xc9, 0xe8, 0xe2, 0xbc, 0xbd, 0x1c, 0x67, 0xbd,
  0x28, 0x3d, 0x16, 0x3f, 0x60, 0x4c, 0x85, 0xbd, 0xf9, 0xc7, 0x0f, 0x3e,
  0xec, 0x75, 0x12, 0xbd, 0x41, 0xb4, 0x8e, 0xbd, 0x0d, 0xf9, 0xe9, 0x3d,
  0x69, 0x3c, 0xcf, 0x3d, 0x56, 0x63, 0x82, 0x3e, 0x2a, 0x8e, 0xb8, 0x3e,
  0x29, 0xa7, 0x91, 0xbc, 0xa9, 0x03, 0x6d, 0x3e, 0xb8, 0xf2, 0x7e, 0xbc,
  0xd9, 0x05, 0x80, 0xbc, 0x62, 0x4f, 0x1f, 0xbf, 0x03, 0x90, 0x22, 0xbe,
  0xab, 0xe8, 0xac, 0xbd, 0x4a, 0x64, 0x1a, 0xbf, 0xb6, 0x20, 0x4b, 0xbd,
  0xc1, 0x81, 0x6c, 0xbe, 0x09, 0xa6, 0x23, 0xbd, 0x07, 0xab, 0x20, 0x3e,
  0xf3, 0x9a, 0x67, 0xbf, 0x37, 0xde, 0x24, 0xbe, 0x32, 0xc0, 0x3b, 0x3e,
  0xd4, 0x67, 0x51, 0x3e, 0xf9, 0x93, 0x99, 0xbd, 0x92, 0x64, 0x8f, 0xbd,
  0xc1, 0x11, 0xb8, 0xbd, 0x92, 0xf1, 0xf4, 0xbe, 0xab, 0xaa, 0x3d, 0x3e,
  0xf2, 0xdb, 0xe7, 0xbe, 0xe5, 0x70, 0x7c, 0x3e, 0x37, 0x31, 0xd0, 0xbd,
  0xc3, 0x0a, 0x45, 0x3e, 0x9a, 0x6a, 0x20, 0x3f, 0xd6, 0xb3, 0x6b, 0xbe,
  0xae, 0xab, 0x13, 0xbf, 0x8f, 0x94, 0x40, 0x3e, 0x79, 0x8d, 0x03, 0xbe,
  0xb7, 0x29, 0xdb, 0xbe, 0xc5, 0x65, 0xac, 0xbe, 0x59, 0x82, 0xbc, 0x3c,
  0xe5, 0x2c, 0x29, 0xbe, 0x06, 0xe8, 0x86, 0xbe, 0x1f, 0x21, 0x45, 0x3e,
  0xab, 0x63, 0xb3, 0x3d, 0x6d, 0xb9, 0x34, 0xbc, 0xd5, 0x64, 0x7e, 0xbe,
  0x2e, 0x27, 0x94, 0x3d, 0x7d, 0xd3, 0x61, 0xbe, 0xa0, 0x3c, 0x09, 0xbe,
  0x28, 0x18, 0x62, 0xbe, 0x72, 0x66, 0x33, 0x3e, 0xc5, 0x3a, 0x48, 0xbe,
  0x47, 0x76, 0x9e, 0xbd, 0x25, 0xb6, 0xf1, 0x3d, 0x50, 0x7e, 0xa1, 0xbe,
  0x2b, 0x5b, 0x87, 0xbe, 0x09, 0x82, 0x65, 0xbe, 0x70, 0x0e, 0x9c, 0xbd,
  0xab, 0xc3, 0x2e, 0xbd, 0x99, 0x9f, 0x46, 0x3e, 0x10, 0xf3, 0x27, 0xbb,
  0x0b, 0xec, 0xc3, 0xbd, 0x61, 0x58, 0xc0, 0xbe, 0x1c, 0x3e, 0x4c, 0xbe,
  0x7c, 0x4a, 0xbc, 0xbe, 0x83, 0x59, 0x2b, 0xbd, 0x7e, 0x9f, 0x4d, 0xbd,
  0xde, 0xeb, 0x3b, 0xbd, 0x21, 0x86, 0xf0, 0xbd, 0x03, 0x2b, 0xec, 0xbd,
  0x13, 0xc8, 0x3c, 0xbd, 0x40, 0x0e, 0x82, 0xbe, 0x9e, 0x8c, 0x1d, 0xbd,
  0xea, 0xb9, 0xe0, 0x3c, 0x54, 0xc5, 0x4e, 0xbc, 0x13, 0xce, 0x79, 0x3e,
  0xa8, 0x25, 0x5c, 0x3e, 0x55, 0xd2, 0x52, 0xbd, 0x9e, 0x7c, 0xa4, 0x3e,
  0xed, 0x83, 0x9c, 0xbd, 0x90, 0x58, 0xb8, 0x3c, 0x20, 0x95, 0x9a, 0x3d,
  0xfa, 0x60, 0x03, 0x3d, 0xfe, 0x8a, 0x11, 0xbf, 0x2e, 0xe6, 0x92, 0xbe,
  0x2a, 0xf4, 0x85, 0xbe, 0x04, 0xa2, 0xaf, 0xbe, 0xb0, 0x82, 0x1d, 0xbd,
  0x89, 0x5f, 0x3b, 0xbe, 0xb2, 0x2d, 0xe5, 0xbc, 0x83, 0x34, 0x23, 0xbe,
  0x2f, 0xbc, 0xb7, 0xbe, 0x32, 0x93, 0x45, 0xbe, 0xba, 0xe3, 0xb7, 0x3d,
  0x58, 0x72, 0xfa, 0x3e, 0x76, 0x24, 0xf0, 0x3d, 0x9a, 0xf7, 0xac, 0x3e,
  0x4d, 0x10, 0x2a, 0xbe, 0x77, 0x0f, 0xd5, 0xbe, 0x2e, 0x2c, 0x0a, 0x3e,
  0xed, 0x1c, 0x50, 0xbe, 0xd8, 0xdd, 0x24, 0xbe, 0xe5, 0x76, 0x81, 0xbb,
  0xdd, 0xf0, 0x80, 0x3d, 0x72, 0x6a, 0x61, 0x3e, 0xd8, 0xba, 0xcb, 0xbe,
  0x29, 0x7b, 0x43, 0xbd, 0x39, 0xaa, 0x82, 0x3e, 0xf9, 0xce, 0x3d, 0xbe,
  0xd3, 0x1f, 0x44, 0xbe, 0x50, 0x4a, 0x08, 0xbc, 0x86, 0xcb, 0x3c, 0x3d,
  0x00, 0x92, 0x98, 0xbd, 0xbf, 0xb9, 0xbc, 0xbe, 0x69, 0x6f, 0xd3, 0x3e,
  0xc5, 0x8c, 0x8a, 0x3c, 0x20, 0x73, 0x19, 0xbe, 0x7c, 0x40, 0x8e, 0x3d,
  0xf3, 0xca, 0x42, 0xbe, 0x13, 0xb3, 0x08, 0x3e, 0xa0, 0xb9, 0xb3, 0x3d,
  0x6f, 0x84, 0xad, 0xbd, 0xf3, 0x0a, 0xd7, 0xbd, 0xd7, 0x1a, 0x23, 0xbd,
  0xb8, 0x23, 0x54, 0xbc, 0x5b, 0xaf, 0x1a, 0xbf, 0x56, 0xc5, 0xc3, 0xbe,
  0xd5, 0xb7, 0x9a, 0xbd, 0x78, 0x9d, 0x3c, 0xbf, 0x02, 0xfe, 0xb4, 0x39,
  0x9e, 0x01, 0x07, 0xbd, 0x7c, 0x6b, 0xb4, 0x3e, 0x71, 0x2e, 0x10, 0x3e,
  0xcb, 0x4f, 0x4a, 0xbd, 0x60, 0x82, 0xcb, 0x3e, 0xe8, 0xe3, 0x6b, 0xbe,
  0x35, 0x0d, 0x04, 0xbe, 0xfa, 0x5b, 0xc9, 0xbb, 0x65, 0x94, 0xb9, 0x3c,
  0x09, 0x6e, 0x80, 0xbb, 0x70, 0x01, 0x8e, 0x3d, 0x15, 0xa9, 0x51, 0x3e,
  0xe6, 0x7c, 0x5c, 0x3c, 0xe5, 0x9e, 0xe2, 0xbe, 0x1b, 0x42, 0x2c, 0x3e,
  0xb5, 0xab, 0xaf, 0xbd, 0x0c, 0x1d, 0xed, 0xbb, 0xff, 0xdc, 0xa0, 0xbe,
  0xdf, 0xb2, 0x6d, 0xbe, 0x9f, 0x8d, 0x77, 0xbe, 0x3e, 0x7d, 0xd5, 0xbe,
  0x0f, 0x3c, 0x1b, 0xbf, 0x71, 0x18, 0xc4, 0xbe, 0x09, 0x90, 0x32, 0xbe,
  0x28, 0x59, 0xab, 0xbd, 0x5f, 0xfe, 0xda, 0xbd, 0x7a, 0x72, 0x2b, 0xbc,
  0x59, 0x08, 0x28, 0xbe, 0x8a, 0x09, 0x16, 0x3e, 0x26, 0x8c, 0xea, 0xbe,
  0xb9, 0xf4, 0x58, 0x3d, 0x0a, 0x47, 0x24, 0x3d, 0x69, 0xa4, 0x8b, 0xbd,
  0x85, 0xa4, 0x9a, 0x3d, 0xc4, 0xfd, 0xab, 0x3e, 0x4c, 0xa3, 0x72, 0x3e,
  0x27, 0xa9, 0x8b, 0x3e, 0xe5, 0xb4, 0x15, 0xbe, 0x31, 0xfd, 0xa4, 0x3d,
  0x70, 0xba, 0xfc, 0x3d, 0xda, 0xb2, 0x87, 0xbd, 0x49, 0xb2, 0x7d, 0x3d,
  0xb8, 0x6e, 0x37, 0x3e, 0x73, 0x1d, 0x9f, 0x3d, 0x01, 0x71, 0x84, 0x3e,
  0x04, 0x03, 0x77, 0xbe, 0xbd, 0xd4, 0xa1, 0x3c, 0x5b, 0xc5, 0x05, 0xbe,
  0x8c, 0x0e, 0x31, 0xbd, 0x9b, 0x64, 0xbc, 0x3d, 0x12, 0x27, 0xa7, 0xbd,
  0x5d, 0x01, 0x21, 0xbd, 0xa1, 0x40, 0xaf, 0xbd, 0x00, 0xea, 0x18, 0x3d,
  0x10, 0x54, 0x15, 0x3f, 0x60, 0x9d, 0x94, 0xbd, 0x8f, 0x0e, 0x0a, 0x3a,
  0x88, 0xde, 0x21, 0xbe, 0xe6, 0x3e, 0xc1, 0xbd, 0xf5, 0x35, 0x8d, 0x3e,
  0x81, 0xb0, 0xc6, 0x3e, 0xfb, 0x85, 0x7c, 0xbc, 0xc2, 0x15, 0x98, 0xbe,
  0x31, 0xc7, 0xa9, 0xbd, 0xee, 0x52, 0xd0, 0x3c, 0x5e, 0xff, 0x92, 0x3b,
  0x8f, 0x77, 0xc2, 0xbc, 0xcb, 0x2c, 0x56, 0x3d, 0x3d, 0x83, 0x31, 0x3e,
  0x30, 0xf4, 0xb1, 0xbb, 0xa9, 0x5b, 0x43, 0xbd, 0xed, 0x54, 0xac, 0xbd,
  0x2d, 0x84, 0xc1, 0xbc, 0x54, 0xde, 0x48, 0xbe, 0x37, 0xa6, 0xde, 0x3c,
  0xdc, 0x03, 0xf1, 0x3c, 0x24, 0x87, 0xbf, 0x3d, 0xd3, 0x45, 0xe4, 0xbc,
  0x8b, 0x21, 0x60, 0x3d, 0xe0, 0x25, 0xe3, 0xbd, 0x08, 0xad, 0x23, 0x3e,
  0x9b, 0xfe, 0x34, 0x3e, 0x45, 0xa8, 0xbc, 0x3d, 0x67, 0x6a, 0x74, 0xbe,
  0x67, 0xf1, 0xea, 0x3e, 0xb2, 0x20, 0x97, 0x3d, 0x10, 0xaa, 0x49, 0xbe,
  0x1d, 0xd0, 0xd8, 0xbe, 0xe5, 0xb1, 0xb8, 0xbe, 0x5c, 0x5e, 0x35, 0x3e,
  0x22, 0x67, 0x85, 0xbd, 0xe0, 0x27, 0xae, 0xbb, 0xea, 0x35, 0xef, 0x3e,
  0x2c, 0x2e, 0x97, 0xbb, 0x4d, 0x79, 0xeb, 0x3e, 0xb2, 0xa5, 0xa9, 0xbe,
  0xa8, 0xfe, 0xcc, 0xbe, 0xa5, 0x24, 0x0f, 0x3e, 0xac, 0x9b, 0x18, 0x3d,
  0xd2, 0x58, 0x13, 0xbe, 0x4f, 0x06, 0x27, 0x3d, 0x4d, 0x96, 0x9c, 0x3d,
  0x17, 0x34, 0xa8, 0x3d, 0xcd, 0xf9, 0xb9, 0xbe, 0x55, 0xe9, 0xf4, 0xbc,
  0xee, 0xb3, 0x46, 0x3e, 0xef, 0x7d, 0xeb, 0x3c, 0xc8, 0xe2, 0x1d, 0xbe,
  0xe7, 0x87, 0xc4, 0x3e, 0xb0, 0xee, 0x7c, 0xbd, 0x69, 0x35, 0x1b, 0x3e,
  0xe3, 0x0e, 0x9f, 0xbe, 0x85, 0x60, 0xa9, 0xbd, 0x0a, 0xe4, 0xa7, 0xbe,
  0x67, 0xa4, 0x20, 0x3e, 0xed, 0xad, 0xb7, 0xbd, 0xd8, 0xfb, 0xbb, 0x3d,
  0x73, 0xdc, 0x77, 0xbc, 0x6f, 0x8e, 0x2a, 0x3f, 0xa4, 0x6e, 0x7e, 0xbe,
  0xca, 0xbb, 0xfa, 0xbd, 0xeb, 0x89, 0xac, 0x3d, 0x2b, 0xb4, 0x82, 0xbe,
  0x8f, 0x37, 0x66, 0x3e, 0x39, 0x4f, 0x2c, 0x3f, 0xec, 0x46, 0xd2, 0x3b,
  0xa9, 0x0e, 0x7d, 0xbe, 0x60, 0x5b, 0x8b, 0xbe, 0xd2, 0x96, 0xc5, 0xbe,
  0xb7, 0xe0, 0x45, 0x3e, 0xf7, 0x01, 0x87, 0xbb, 0x89, 0x11, 0x7d, 0xbe,
  0xe3, 0x11, 0xae, 0xbc, 0x8a, 0xdc, 0x15, 0x3e, 0xca, 0x85, 0x16, 0x3c,
  0x04, 0x7c, 0x8d, 0xbe, 0xba, 0x5d, 0x15, 0xbe, 0x8b, 0x13, 0x6d, 0x3e,
  0xa3, 0x0b, 0x86, 0x3d, 0x6b, 0x2f, 0x0b, 0xbe, 0xbd, 0x95, 0x81, 0x3e,
  0xab, 0xcc, 0xd2, 0x3c, 0x40, 0x4f, 0xfc, 0x3d, 0xff, 0x5b, 0x6a, 0xbe,
  0xb3, 0xfa, 0x93, 0x3d, 0xe0, 0x69, 0xd7, 0xbe, 0x61, 0x87, 0xbb, 0xbe,
  0xc6, 0x5f, 0xca, 0x3e, 0xd1, 0x03, 0x2c, 0xbe, 0xf5, 0x79, 0x1c, 0xbe,
  0xd5, 0x67, 0xfd, 0xbc, 0x92, 0xde, 0x23, 0x3e, 0x8b, 0xed, 0xb3, 0xbe,
  0x43, 0x1f, 0x20, 0xbf, 0x2f, 0xc2, 0xa2, 0xbe, 0x10, 0x2b, 0x03, 0xbe,
  0x07, 0xee, 0xd2, 0xbd, 0x18, 0xc0, 0x3f, 0xbe, 0x8d, 0xee, 0xb8, 0xbc,
  0x72, 0x1e, 0xf8, 0x3d, 0xb2, 0x02, 0xc6, 0x3d, 0xef, 0xb0, 0x22, 0xbe,
  0xab, 0x7b, 0xb3, 0xbe, 0xcf, 0xec, 0x46, 0x3d, 0x78, 0x60, 0x1f, 0xbe,
  0xb8, 0xe4, 0x63, 0xbe, 0xae, 0xcd, 0x50, 0xbe, 0xe4, 0x45, 0xa7, 0x3c,
  0x48, 0x4f, 0xe1, 0x3d, 0x24, 0x8c, 0x95, 0xbe, 0x93, 0x9f, 0x41, 0xbe,
  0x41, 0xda, 0x71, 0x3d, 0x04, 0xf3, 0xbd, 0xbd, 0xdc, 0x4f, 0xdf, 0xbd,
  0x5e, 0x51, 0x3c, 0xbe, 0x40, 0xb2, 0x88, 0xbc, 0x94, 0xe1, 0xa9, 0xbd,
  0xd4, 0x5d, 0xed, 0x3d, 0x42, 0xbb, 0x25, 0xbd, 0x4d, 0xee, 0xf6, 0x3c,
  0xf1, 0xa7, 0x1c, 0xbe, 0xd8, 0x3b, 0xec, 0x3d, 0xaf, 0x32, 0x5d, 0x3c,
  0x2c, 0xd0, 0x08, 0x3e, 0x7b, 0x4c, 0x97, 0x3e, 0xb2, 0xfb, 0x01, 0x3c,
  0x38, 0x38, 0x89, 0xbc, 0x0f, 0x34, 0x5f, 0x3e, 0xf2, 0x42, 0x18, 0xbe,
  0xc6, 0x89, 0xba, 0x3c, 0x75, 0xe3, 0x1a, 0x3e, 0x26, 0x0a, 0xb2, 0xbd,
  0xe3, 0x39, 0x93, 0xbd, 0x01, 0x36, 0x8e, 0xbd, 0xae, 0x3b, 0x64, 0x3e,
  0x87, 0xeb, 0xf3, 0xbc, 0x22, 0xe2, 0x3a, 0x3d, 0xdd, 0xd6, 0x48, 0x3e,
  0xd0, 0x55, 0xad, 0xbd, 0xe7, 0x9a, 0x77, 0xbd, 0x05, 0xae, 0x23, 0x3d,
  0x35, 0x39, 0x1b, 0x3d, 0xf7, 0xe2, 0x68, 0xbc, 0x6e, 0xb6, 0xb7, 0x3d,
  0xab, 0xaa, 0x13, 0xbd, 0x3e, 0x49, 0x17, 0x3d, 0xd1, 0xfb, 0x40, 0xbd,
  0xd4, 0xa2, 0x5f, 0x3d, 0xb4, 0xa5, 0x00, 0x3e, 0x7c, 0x4d, 0x21, 0xbe,
  0x9c, 0x57, 0x5f, 0xbe, 0xad, 0xa7, 0x29, 0xbe, 0xea, 0xc9, 0xa0, 0xbe,
  0x6a, 0x5a, 0xc4, 0xbd, 0x02, 0x42, 0xb7, 0x3c, 0x6e, 0xd2, 0xd3, 0xbd,
  0xc7, 0xc2, 0x19, 0xbe, 0x0e, 0xdc, 0x93, 0xbd, 0xbc, 0x04, 0x63, 0xbd,
  0xbd, 0x2d, 0x3e, 0x3d, 0x8d, 0x14, 0x04, 0xbd, 0x15, 0x75, 0x8f, 0xbd,
  0xf5, 0x72, 0x96, 0xbb, 0x07, 0x82, 0xb0, 0x3c, 0x4a, 0xcd, 0x09, 0xbe,
  0x42, 0x69, 0x9f, 0x3d, 0xc1, 0xd7, 0x87, 0x3e, 0xb1, 0x6e, 0x1b, 0xbc,
  0xfa, 0x72, 0xab, 0x3e, 0xba, 0xdb, 0x10, 0xbd, 0xaf, 0x07, 0x40, 0x3e,
  0xe9, 0xe5, 0xc9, 0xb9, 0x44, 0x36, 0x3b, 0xbe, 0xd9, 0xda, 0xbe, 0x3d,
  0xf9, 0xce, 0x75, 0x3e, 0x90, 0x32, 0x52, 0x3e, 0xf5, 0x5a, 0x2c, 0x3c,
  0xea, 0x2d, 0x87, 0xbd, 0xaa, 0x69, 0x87, 0x3d, 0x01, 0xf3, 0xe9, 0x3c,
  0x4d, 0x37, 0xe7, 0x3c, 0x02, 0xea, 0x40, 0xbe, 0xd6, 0xac, 0xc8, 0xbd,
  0x67, 0xd2, 0xab, 0xbd, 0xde, 0xc9, 0x91, 0xbe, 0x44, 0x36, 0xed, 0xbc,
  0xbc, 0x24, 0xaf, 0x3a, 0x78, 0x64, 0x3e, 0xbc, 0x94, 0xfc, 0xa9, 0xbd,
  0xb3, 0x1b, 0x93, 0xbd, 0x4f, 0x26, 0x86, 0xbd, 0x41, 0x3a, 0x5f, 0xbe,
  0x23, 0xd2, 0x4d, 0xbe, 0x82, 0x41, 0x3f, 0xbd, 0xf5, 0x43, 0x1a, 0xbd,
  0x65, 0x39, 0x88, 0xbc, 0x7c, 0x40, 0x87, 0xbd, 0x29, 0x6e, 0x20, 0x3f,
  0x71, 0x54, 0x39, 0xbc, 0x6c, 0x0b, 0xf3, 0x3d, 0xa1, 0x9d, 0x89, 0x3e,
  0xa8, 0xf2, 0x2b, 0xbe, 0xae, 0x7a, 0x04, 0x3c, 0xf6, 0xf8, 0x45, 0xb9,
  0x96, 0x3d, 0x50, 0xbd, 0x3d, 0x99, 0x33, 0xbe, 0x52, 0x64, 0x30, 0x3e,
  0x69, 0x59, 0xe0, 0x3d, 0xdd, 0x4e, 0x85, 0x3d, 0x84, 0x01, 0x0f, 0xbe,
  0x30, 0xc5, 0x7f, 0x3c, 0x71, 0x7d, 0x50, 0xbc, 0x18, 0xfb, 0x44, 0xbd,
  0x7a, 0x7f, 0x15, 0xbf, 0x3e, 0xda, 0xa9, 0xbe, 0x30, 0x01, 0x00, 0x3d,
  0x4a, 0x69, 0x86, 0xbe, 0x4e, 0x40, 0x9f, 0xbd, 0x6e, 0x83, 0x6d, 0x3e,
  0x17, 0x7d, 0xd3, 0xbd, 0x6d, 0x64, 0x91, 0xbd, 0x76, 0x85, 0x32, 0xbd,
  0xae, 0x37, 0x66, 0xbe, 0x8c, 0xaf, 0x73, 0x3e, 0x47, 0xb0, 0x84, 0x3e,
  0xdf, 0xce, 0xde, 0xbc, 0xd1, 0xb8, 0xbb, 0x3e, 0x6b, 0xaf, 0x8b, 0xbd,
  0xe0, 0x94, 0x66, 0xbe, 0xaa, 0x9e, 0xbc, 0x3e, 0x83, 0x18, 0xf3, 0xbd,
  0x01, 0xff, 0x71, 0xbe, 0x41, 0x12, 0x4f, 0xbe, 0xca, 0x7e, 0xd5, 0xbc,
  0x00, 0x13, 0xbb, 0xbe, 0x3f, 0x08, 0x06, 0x3b, 0xa0, 0x81, 0xd1, 0xbd,
  0xca, 0x7a, 0xd3, 0x3e, 0x3c, 0xf5, 0x94, 0x3e, 0x03, 0x46, 0x6a, 0xbe,
  0xd2, 0xeb, 0x10, 0x3d, 0x05, 0x21, 0x97, 0xbd, 0x61, 0x96, 0xad, 0xbe,
  0x29, 0x55, 0x45, 0x3e, 0xc4, 0xf5, 0xfe, 0x3d, 0x9b, 0x5f, 0x17, 0x3e,
  0x14, 0xaf, 0x76, 0xbd, 0xe2, 0x8f, 0x16, 0xbf, 0x3e, 0x68, 0x22, 0x3c,
  0x5a, 0x9d, 0x9d, 0xbe, 0xb6, 0x23, 0xf0, 0x3d, 0x13, 0x5b, 0x3e, 0x3e,
  0xb3, 0xac, 0x96, 0xbd, 0xc3, 0x24, 0x05, 0x3e, 0x26, 0x28, 0xbd, 0x3e,
  0x93, 0x4b, 0x15, 0x3b, 0xaa, 0x80, 0xa6, 0x3d, 0x98, 0x21, 0x2e, 0xbf,
  0xdb, 0x3f, 0xe6, 0xbd, 0x67, 0x9c, 0xcd, 0xbd, 0x1b, 0x61, 0x5d, 0xbd,
  0xe0, 0xe1, 0x4b, 0xbd, 0x55, 0x3b, 0x3b, 0xbd, 0x66, 0x51, 0x65, 0x3e,
  0xec, 0x72, 0x04, 0x3f, 0x58, 0x13, 0x35, 0xbf, 0xee, 0xd8, 0xeb, 0xbd,
  0x0a, 0xab, 0x52, 0xbe, 0x0b, 0xd6, 0x35, 0xbd, 0xbf, 0xb8, 0xdc, 0xbe,
  0x50, 0xe9, 0x6a, 0xbe, 0x08, 0xe9, 0xc7, 0x3e, 0xc3, 0xb8, 0x4c, 0xbe,
  0x33, 0xfa, 0xdc, 0xbe, 0xf9, 0xe7, 0x14, 0x3e, 0x80, 0x8a, 0x65, 0xbe,
  0x7d, 0x62, 0x25, 0xbd, 0xfc, 0x96, 0x4e, 0x3d, 0x7b, 0x07, 0x97, 0x3e,
  0x24, 0xa7, 0x86, 0x3e, 0xea, 0x9f, 0xc9, 0x3e, 0xdb, 0x24, 0x87, 0xbe,
  0xf5, 0x10, 0x49, 0x3e, 0x88, 0x66, 0x35, 0x3e, 0x22, 0x2f, 0x0f, 0x3c,
  0x8d, 0x19, 0x9f, 0xba, 0xc0, 0xa0, 0x9a, 0x3e, 0x19, 0x8f, 0xeb, 0x3c,
  0x65, 0x1e, 0xb7, 0x3e, 0xc5, 0xfe, 0xc9, 0xbe, 0xe0, 0x19, 0x1e, 0x3e,
  0xe7, 0x76, 0x02, 0xbe, 0x42, 0xc1, 0x40, 0x3b, 0x1d, 0xc2, 0x35, 0xbe,
  0xd1, 0xed, 0x9b, 0xbe, 0xe2, 0xa7, 0x2c, 0x3e, 0xf8, 0x5a, 0x71, 0xbe,
  0x69, 0x7c, 0x5b, 0xbe, 0x90, 0xe6, 0xdc, 0x3d, 0x3e, 0x57, 0x41, 0xbe,
  0xaa, 0x38, 0xe9, 0xbc, 0xbf, 0x2c, 0xc5, 0xbe, 0xb0, 0xf9, 0xe4, 0xbe,
  0x60, 0xae, 0x4d, 0x3d, 0xb5, 0x1a, 0x03, 0xbf, 0xa6, 0x56, 0x2f, 0xbe,
  0x58, 0x2c, 0xd5, 0x3d, 0x18, 0x59, 0x0f, 0xbe, 0x62, 0xef, 0xf2, 0xbd,
  0x0a, 0xdf, 0xff, 0xff, 0x10, 0x00, 0x00, 0x00, 0x08, 0x00, 0x00, 0x00,
  0x1c, 0x00, 0x00, 0x00, 0x38, 0x00, 0x00, 0x00, 0x04, 0x00, 0x00, 0x00,
  0x10, 0x00, 0x00, 0x00, 0x04, 0x00, 0x00, 0x00, 0x01, 0x00, 0x00, 0x00,
  0x08, 0x00, 0x00, 0x00, 0x1a, 0x00, 0x00, 0x00, 0x73, 0x65, 0x71, 0x75,
  0x65, 0x6e, 0x74, 0x69, 0x61, 0x6c, 0x2f, 0x63, 0x6f, 0x6e, 0x76, 0x32,
  0x64, 0x5f, 0x31, 0x2f, 0x43, 0x6f, 0x6e, 0x76, 0x32, 0x44, 0x00, 0x00,
  0x04, 0xdf, 0xff, 0xff, 0xfa, 0xdf, 0xff, 0xff, 0x04, 0x00, 0x00, 0x00,
  0x80, 0x01, 0x00, 0x00, 0x68, 0xf1, 0x18, 0x3e, 0x9a, 0xe0, 0xbe, 0x3e,
  0x61, 0x22, 0x33, 0x3e, 0x05, 0xf1, 0x8c, 0x3d, 0xf4, 0xcd, 0x07, 0x3d,
  0x1b, 0x81, 0x70, 0x3e, 0xbe, 0xc5, 0x33, 0xbe, 0x19, 0x30, 0x8a, 0xbe,
  0x51, 0x1c, 0x69, 0xbe, 0xe4, 0x4d, 0x54, 0xbd, 0xbd, 0xb9, 0x65, 0xbe,
  0xaf, 0x36, 0x54, 0xbe, 0x43, 0xab, 0xa2, 0xbc, 0x74, 0xae, 0x7d, 0x3e,
  0x9e, 0xb6, 0x95, 0xbe, 0x73, 0x66, 0xe1, 0x3a, 0x06, 0x9c, 0xc3, 0x3c,
  0x20, 0x9f, 0x0b, 0xbe, 0xbf, 0x7a, 0x60, 0x3d, 0xa8, 0x5a, 0x19, 0xbe,
  0x3d, 0xc8, 0xf3, 0x3d, 0xf6, 0x4c, 0x4e, 0x3d, 0x07, 0x90, 0x47, 0xbe,
  0x24, 0x31, 0x0e, 0x3e, 0xa3, 0x12, 0xc0, 0xbe, 0x71, 0x32, 0xfc, 0xbd,
  0xd7, 0x25, 0x39, 0xbc, 0x45, 0x67, 0x6f, 0xbd, 0x23, 0x10, 0x46, 0xbb,
  0xf5, 0x90, 0x67, 0x3d, 0x03, 0x0a, 0x8b, 0x3e, 0x27, 0xc7, 0xce, 0x3d,
  0xaa, 0xbb, 0x37, 0x3d, 0x2f, 0x9f, 0x51, 0x3e, 0x67, 0x2a, 0x3f, 0x3e,
  0x85, 0x15, 0xb4, 0x3d, 0x0c, 0x5e, 0xfb, 0x39, 0x92, 0xc3, 0xbc, 0x3c,
  0xf8, 0xaf, 0xa3, 0xbd, 0x66, 0xe4, 0x94, 0x3c, 0xcc, 0x79, 0x2c, 0x3d,
  0xc8, 0x8c, 0x2f, 0xbf, 0xc6, 0xf0, 0x46, 0x3d, 0xd2, 0x56, 0x86, 0xbd,
  0xef, 0xf8, 0x05, 0x3f, 0xaf, 0xf1, 0x6f, 0xbd, 0x65, 0x1d, 0x82, 0x3c,
  0x5c, 0x2f, 0x51, 0x3e, 0x5c, 0xa2, 0xe3, 0x3e, 0x18, 0xbd, 0xb0, 0xbd,
  0x94, 0x06, 0x27, 0xbd, 0xf0, 0x4f, 0xca, 0x3e, 0x23, 0x7a, 0xc3, 0x3d,
  0x2e, 0xa3, 0x22, 0xbe, 0x6d, 0x24, 0x12, 0xbf, 0xbd, 0x48, 0x40, 0x3e,
  0x8c, 0xea, 0x71, 0xbc, 0xe7, 0x10, 0xb2, 0x3e, 0x95, 0xe8, 0x92, 0x3d,
  0xb8, 0x11, 0x30, 0x3e, 0xf7, 0x0e, 0x8d, 0xbd, 0xf1, 0x89, 0x05, 0xbd,
  0xf1, 0x58, 0xbc, 0xbc, 0xa6, 0xfa, 0x7a, 0xbe, 0x34, 0xe1, 0xb8, 0xbe,
  0x58, 0x3e, 0xdc, 0xbe, 0x77, 0xb7, 0x5e, 0x3e, 0x03, 0x5e, 0x13, 0x3e,
  0x24, 0x6c, 0x5b, 0x3e, 0xd4, 0x3f, 0x26, 0x3e, 0x94, 0x92, 0x9d, 0x3e,
  0x8c, 0x83, 0x8c, 0x3e, 0x6a, 0xd3, 0xcc, 0xbc, 0xce, 0xb9, 0xd2, 0xbc,
  0xe6, 0x49, 0x42, 0xbd, 0x12, 0x66, 0x33, 0xbd, 0xc5, 0x0c, 0x05, 0x3e,
  0x01, 0xba, 0x84, 0x3b, 0x63, 0x1f, 0x0f, 0xbd, 0x23, 0x4f, 0x0e, 0x3e,
  0x0b, 0x53, 0xa3, 0xbd, 0x28, 0xc4, 0x73, 0x3d, 0x9a, 0x39, 0xa0, 0x3d,
  0xe1, 0x61, 0x4b, 0xbe, 0xc8, 0xa4, 0xcf, 0xbd, 0xde, 0x86, 0x06, 0xbe,
  0x9d, 0x03, 0x38, 0x3c, 0x30, 0x95, 0x8f, 0xbc, 0x96, 0x23, 0x20, 0xbe,
  0xb0, 0xb1, 0x7c, 0x3c, 0xee, 0x61, 0x37, 0xbc, 0x4f, 0x4f, 0x52, 0x3a,
  0xbc, 0x96, 0x07, 0xbe, 0x11, 0x2d, 0x9a, 0xbd, 0xb3, 0x13, 0x12, 0xbd,
  0xcf, 0xfe, 0xee, 0xbd, 0xe2, 0xe0, 0xff, 0xff, 0x10, 0x00, 0x00, 0x00,
  0x07, 0x00, 0x00, 0x00, 0x1c, 0x00, 0x00, 0x00, 0x38, 0x00, 0x00, 0x00,
  0x04, 0x00, 0x00, 0x00, 0x08, 0x00, 0x00, 0x00, 0x04, 0x00, 0x00, 0x00,
  0x03, 0x00, 0x00, 0x00, 0x01, 0x00, 0x00, 0x00, 0x18, 0x00, 0x00, 0x00,
  0x73, 0x65, 0x71, 0x75, 0x65, 0x6e, 0x74, 0x69, 0x61, 0x6c, 0x2f, 0x63,
  0x6f, 0x6e, 0x76, 0x32, 0x64, 0x2f, 0x43, 0x6f, 0x6e, 0x76, 0x32, 0x44,
  0x00, 0x00, 0x00, 0x00, 0xdc, 0xe0, 0xff, 0xff, 0xd2, 0xe1, 0xff, 0xff,
  0x04, 0x00, 0x00, 0x00, 0xc0, 0x00, 0x00, 0x00, 0xe0, 0x2d, 0x4f, 0x3e,
  0x8f, 0xed, 0x47, 0xbe, 0x0b, 0x06, 0xff, 0x3d, 0x12, 0xd9, 0x9f, 0xbd,
  0x6c, 0x94, 0x48, 0xbe, 0xe5, 0x7f, 0x59, 0x3e, 0x4b, 0xea, 0x83, 0x3e,
  0xd4, 0xc9, 0x97, 0xbe, 0x78, 0xf6, 0xa6, 0xbd, 0x64, 0xac, 0x8b, 0x3e,
  0x85, 0xfc, 0xc4, 0x3e, 0x7f, 0xa9, 0xbd, 0xbc, 0x24, 0x78, 0xc8, 0xbd,
  0x8a, 0xd1, 0x87, 0x3e, 0xac, 0x9f, 0xef, 0xbc, 0x8e, 0xcf, 0xe8, 0x3d,
  0x3a, 0x4c, 0x0f, 0xbe, 0x64, 0x40, 0x80, 0xbe, 0x94, 0x23, 0x87, 0xbc,
  0x39, 0x12, 0x2c, 0xbe, 0xc2, 0x4c, 0x57, 0x3c, 0xf6, 0x71, 0x9a, 0xbe,
  0xb0, 0xb8, 0xa5, 0x3e, 0x59, 0x0b, 0x9e, 0xbe, 0xbc, 0x79, 0x90, 0xbe,
  0x36, 0x9e, 0xcc, 0x3d, 0x7f, 0x25, 0xbe, 0x3e, 0x4d, 0xeb, 0xf5, 0xbd,
  0x0d, 0x5c, 0x3f, 0xbe, 0x9e, 0x98, 0x5f, 0x3e, 0x95, 0xd7, 0x3f, 0x3d,
  0x0f, 0x5a, 0x06, 0x3e, 0x78, 0x2b, 0xbc, 0xbe, 0xb5, 0xdf, 0x7c, 0xbe,
  0x68, 0x0a, 0xcd, 0x3d, 0xc2, 0xe1, 0x83, 0xbd, 0xf4, 0x83, 0x32, 0xbd,
  0x78, 0x06, 0x51, 0xbd, 0xea, 0x1c, 0x5a, 0xb9, 0x36, 0x89, 0x69, 0xbe,
  0x3e, 0x9f, 0x98, 0x3e, 0xc5, 0xd8, 0x22, 0x3e, 0xcf, 0x56, 0xdd, 0x3e,
  0x44, 0xa8, 0x74, 0x3e, 0x70, 0x23, 0x3f, 0xbe, 0x9f, 0x48, 0x93, 0xbc,
  0xba, 0x78, 0xd3, 0x3b, 0x8d, 0xa8, 0xb3, 0xbb, 0xfa, 0xe1, 0xff, 0xff,
  0x10, 0x00, 0x00, 0x00, 0x06, 0x00, 0x00, 0x00, 0x14, 0x00, 0x00, 0x00,
  0x30, 0x00, 0x00, 0x00, 0x02, 0x00, 0x00, 0x00, 0x03, 0x00, 0x00, 0x00,
  0x10, 0x00, 0x00, 0x00, 0x19, 0x00, 0x00, 0x00, 0x73, 0x65, 0x71, 0x75,
  0x65, 0x6e, 0x74, 0x69, 0x61, 0x6c, 0x2f, 0x64, 0x65, 0x6e, 0x73, 0x65,
  0x5f, 0x31, 0x2f, 0x4d, 0x61, 0x74, 0x4d, 0x75, 0x6c, 0x00, 0x00, 0x00,
  0xec, 0xe1, 0xff, 0xff, 0xe2, 0xe2, 0xff, 0xff, 0x04, 0x00, 0x00, 0x00,
  0x00, 0x1c, 0x00, 0x00, 0x6c, 0xc2, 0x12, 0x3e, 0x16, 0xf7, 0xa2, 0xbd,
  0x2e, 0x2c, 0xe4, 0x3c, 0xf6, 0xca, 0x42, 0xbe, 0xa1, 0x85, 0x8e, 0x3d,
  0x8a, 0xa2, 0xad, 0xbd, 0xff, 0xf8, 0x91, 0xbe, 0x9a, 0x26, 0x52, 0x3d,
  0x60, 0x8b, 0x3d, 0xbe, 0x01, 0x5a, 0x63, 0xbd, 0xd0, 0x46, 0xf4, 0xbd,
  0x64, 0x3e, 0x8f, 0xbe, 0x17, 0x39, 0xdd, 0xbd, 0xc8, 0xce, 0x0e, 0x3d,
  0x73, 0xa6, 0xc3, 0xbc, 0x0c, 0xdd, 0x8a, 0xbc, 0xad, 0x9f, 0x20, 0xbe,
  0xf8, 0x1f, 0x32, 0xbe, 0x64, 0x1b, 0xee, 0x3d, 0xc2, 0xe5, 0x1f, 0x3d,
  0x54, 0x82, 0xbc, 0xbd, 0x2f, 0xac, 0xac, 0x3c, 0x7b, 0xe4, 0x60, 0xbe,
  0xf8, 0x4e, 0x90, 0xbc, 0x2d, 0x13, 0x1e, 0xbe, 0x73, 0x82, 0xde, 0xbb,
  0x8e, 0x20, 0xf0, 0xbd, 0xc8, 0x23, 0xe4, 0xbd, 0x70, 0xfc, 0x40, 0xbe,
  0x25, 0x42, 0x70, 0xbd, 0x12, 0x5a, 0x4b, 0xbe, 0xc2, 0x66, 0x33, 0xbd,
  0x5d, 0x39, 0x64, 0x3d, 0xa5, 0x10, 0x18, 0x3e, 0x26, 0xd3, 0x7d, 0x3d,
  0xa9, 0xf3, 0x8d, 0xbe, 0x1f, 0xf9, 0x69, 0xbd, 0x7e, 0x96, 0x2d, 0xbe,
  0x54, 0x6d, 0x9a, 0xbd, 0x8d, 0x29, 0x01, 0xbe, 0x4f, 0xe6, 0x1f, 0xbe,
  0xd9, 0x39, 0x0e, 0xbd, 0x7f, 0xc5, 0x86, 0xbe, 0x49, 0xd0, 0x9f, 0xbd,
  0x4b, 0x6a, 0xb0, 0xbc, 0x5e, 0xa9, 0x17, 0xbd, 0xe3, 0x19, 0x45, 0xbe,
  0x99, 0x9c, 0x52, 0x3d, 0xf7, 0x52, 0x17, 0xbe, 0x53, 0xe5, 0x37, 0x3d,
  0x39, 0x0e, 0x95, 0xbc, 0x60, 0x57, 0x1f, 0x3d, 0x37, 0xff, 0x01, 0xbe,
  0xea, 0xbd, 0xb3, 0xbc, 0x5d, 0x8a, 0x87, 0xbe, 0x31, 0xda, 0x93, 0x3c,
  0xc1, 0xf3, 0x04, 0x3e, 0x03, 0x68, 0x26, 0xbe, 0xbe, 0x8e, 0x87, 0xbd,
  0xf2, 0xa3, 0x90, 0x3c, 0x3f, 0x6d, 0x03, 0xbe, 0xfd, 0x15, 0x81, 0xbc,
  0x73, 0xfe, 0x35, 0xbe, 0x33, 0xb1, 0xea, 0x3c, 0x4b, 0x7f, 0x23, 0xbe,
  0x06, 0x98, 0x76, 0xbe, 0x2e, 0x9d, 0x40, 0xbe, 0x97, 0x27, 0xd1, 0xbc,
  0xfb, 0x93, 0xc5, 0xbd, 0x01, 0x74, 0x27, 0x3d, 0x88, 0x44, 0x95, 0xbd,
  0x14, 0xd0, 0x6f, 0xbe, 0xf5, 0x39, 0x12, 0xbe, 0x72, 0x5b, 0xe3, 0x3d,
  0xeb, 0xf8, 0x3d, 0xbe, 0xce, 0x7a, 0x2e, 0xbe, 0xbd, 0xdf, 0x7f, 0xbc,
  0x2f, 0xe9, 0x64, 0xbd, 0x57, 0xd1, 0xc3, 0x3d, 0x76, 0x87, 0xbd, 0x3c,
  0xf7, 0x3c, 0x84, 0x3d, 0xfb, 0x8d, 0x45, 0xbe, 0x64, 0xa7, 0x82, 0x3d,
  0x11, 0xac, 0x32, 0xbc, 0x36, 0xf0, 0xfa, 0x3b, 0xb8, 0x48, 0x90, 0xbd,
  0xfc, 0x75, 0xda, 0x3c, 0x11, 0x96, 0x90, 0x3d, 0x06, 0xc8, 0x1d, 0xbe,
  0x44, 0x38, 0x16, 0xbd, 0xe8, 0x60, 0xbc, 0xbd, 0x97, 0xab, 0x2e, 0xbe,
  0xd8, 0x69, 0x54, 0xbd, 0xe7, 0x44, 0x9f, 0xbb, 0x30, 0xf6, 0x1a, 0xbe,
  0x0a, 0x07, 0xb8, 0xbc, 0x07, 0x64, 0x83, 0xbe, 0x9a, 0x0f, 0xf8, 0x3a,
  0x7e, 0x43, 0x82, 0xbe, 0x69, 0xfd, 0x15, 0xbc, 0xe9, 0xf2, 0x90, 0xbd,
  0x1e, 0x7b, 0x8c, 0x3d, 0x23, 0x4d, 0xb6, 0x3b, 0x67, 0x76, 0x58, 0xbe,
  0x10, 0xf6, 0x2d, 0xbe, 0x10, 0xcb, 0x35, 0xbe, 0xee, 0xf2, 0x62, 0xbe,
  0xe8, 0x2f, 0x0d, 0x3d, 0xac, 0x7e, 0x45, 0x3d, 0x2d, 0xb4, 0xdd, 0x3d,
  0xa4, 0xab, 0x32, 0xbe, 0x7c, 0x52, 0x9e, 0x3c, 0x4b, 0x9c, 0x3d, 0x3d,
  0x18, 0x6f, 0x6b, 0xbe, 0xfc, 0xa5, 0x59, 0x3d, 0x48, 0x43, 0x88, 0xbe,
  0xfc, 0xe7, 0xdf, 0x3d, 0xcc, 0x9d, 0x58, 0x3e, 0xcf, 0xa9, 0x24, 0xbe,
  0x65, 0x94, 0x86, 0xbe, 0x62, 0x0e, 0x71, 0xbe, 0x59, 0x95, 0x99, 0xbd,
  0xe0, 0x4a, 0x6f, 0xbd, 0xc1, 0x14, 0xa8, 0xbd, 0xda, 0xee, 0x65, 0x3d,
  0x91, 0x11, 0xc1, 0xbb, 0x6e, 0x24, 0xc0, 0x3d, 0x37, 0x45, 0x99, 0x3e,
  0x5d, 0xcb, 0x16, 0xbc, 0x8b, 0xfd, 0x26, 0x3e, 0xed, 0xda, 0x51, 0x3f,
  0xb8, 0x67, 0x6b, 0xbe, 0xea, 0xf6, 0x83, 0x3d, 0xe6, 0xc9, 0x51, 0xbe,
  0x0b, 0xc4, 0xd4, 0xbd, 0x49, 0x56, 0xa2, 0xbe, 0x0a, 0x66, 0x20, 0xbe,
  0xe9, 0x47, 0xd2, 0xbd, 0x64, 0xc1, 0x86, 0xbd, 0xbb, 0x18, 0x10, 0xbe,
  0x76, 0xab, 0x4e, 0x3d, 0x75, 0xbe, 0xa2, 0x3e, 0x30, 0x28, 0x77, 0x3e,
  0xc2, 0x56, 0x5c, 0x3e, 0xbb, 0x39, 0xb6, 0x3d, 0x1c, 0x09, 0xcd, 0x3d,
  0xb3, 0xc3, 0xfe, 0x3e, 0xe3, 0x16, 0xff, 0xbc, 0xe9, 0x66, 0xad, 0x3e,
  0x9f, 0x80, 0x39, 0xbe, 0x30, 0x15, 0xdd, 0xbd, 0x17, 0x85, 0x83, 0xbe,
  0x0a, 0x66, 0x38, 0xbe, 0x7f, 0xd0, 0xc7, 0x3d, 0xa3, 0x4e, 0xea, 0xbc,
  0x9b, 0xe6, 0xa2, 0x3e, 0xac, 0xc0, 0xf6, 0x3e, 0xe3, 0xb6, 0x0b, 0x3f,
  0x46, 0x86, 0xf9, 0x3e, 0x74, 0x35, 0x43, 0x3d, 0xb7, 0xc2, 0x8f, 0x3d,
  0x23, 0xfe, 0xd9, 0x3d, 0x0d, 0x45, 0xf7, 0x3e, 0xaa, 0x34, 0x2c, 0xbe,
  0x5e, 0xc7, 0x4c, 0x3e, 0x4c, 0x3e, 0x92, 0xbd, 0x63, 0x41, 0x5c, 0x3e,
  0x1b, 0xdb, 0x84, 0x3d, 0x1b, 0x91, 0xd5, 0x3d, 0xfd, 0x01, 0x25, 0xbe,
  0xae, 0x92, 0x5b, 0x3b, 0xb7, 0xa4, 0xae, 0x3e, 0x35, 0x8c, 0x04, 0x3f,
  0x54, 0xee, 0xcb, 0x3e, 0xa9, 0x39, 0xd4, 0x3e, 0x2e, 0xad, 0xc6, 0x3e,
  0xd3, 0x0a, 0x69, 0xbc, 0x9d, 0x10, 0x89, 0xbe, 0x60, 0x6d, 0x50, 0x3f,
  0x29, 0xe8, 0x4b, 0xbe, 0x35, 0x52, 0x32, 0x3e, 0x69, 0x68, 0x1b, 0x3e,
  0xc2, 0x88, 0x0d, 0x3d, 0xdb, 0xd5, 0x88, 0xbe, 0x76, 0x54, 0x68, 0xbe,
  0x1e, 0xbb, 0xc3, 0xbd, 0xe9, 0x6c, 0x4e, 0xbd, 0x1b, 0x45, 0x49, 0xbe,
  0x3d, 0x43, 0xe4, 0x3e, 0x98, 0x08, 0xaf, 0xbc, 0xcb, 0x12, 0x91, 0x3e,
  0x66, 0xfa, 0x9e, 0x3e, 0xfa, 0x77, 0x5a, 0x3d, 0x1e, 0x26, 0xeb, 0xbe,
  0x8e, 0xec, 0xfc, 0x3e, 0x38, 0x24, 0xb2, 0xbe, 0x74, 0x33, 0x40, 0x3e,
  0xe5, 0xeb, 0xf3, 0x3e, 0x12, 0x40, 0xb4, 0x3c, 0x4f, 0x52, 0x96, 0xbe,
  0x5a, 0x72, 0x9c, 0xbe, 0x65, 0x6d, 0x29, 0xbe, 0xa6, 0xc9, 0x88, 0xbd,
  0x85, 0xf1, 0x2d, 0x3e, 0x06, 0x16, 0x2d, 0x3e, 0xe3, 0x62, 0xc2, 0x3d,
  0x7f, 0xad, 0x98, 0x3e, 0xc4, 0xde, 0x71, 0x3e, 0x01, 0xc9, 0x2d, 0x3e,
  0x7a, 0xb3, 0x02, 0xbf, 0x21, 0x09, 0x84, 0x3e, 0x68, 0x40, 0xb0, 0xbe,
  0xef, 0xc7, 0xd3, 0x3d, 0x8c, 0x85, 0x07, 0xbd, 0xc5, 0x7a, 0xbf, 0xbd,
  0x9d, 0x94, 0x55, 0xbe, 0xe7, 0x93, 0xda, 0xbd, 0xce, 0x6e, 0x2d, 0xbe,
  0x2a, 0x99, 0xc5, 0xbd, 0x75, 0x19, 0x14, 0xbc, 0x56, 0x80, 0xee, 0x3d,
  0x23, 0x9a, 0x32, 0x3d, 0x21, 0x4f, 0x23, 0x3e, 0xe0, 0x9c, 0x2c, 0xbd,
  0x4e, 0x8c, 0x2a, 0xbe, 0x94, 0xe7, 0x86, 0xbe, 0x79, 0xc9, 0x34, 0x3e,
  0x0a, 0x7d, 0x21, 0xbe, 0x61, 0xc6, 0x17, 0xbe, 0x08, 0x05, 0x87, 0x3e,
  0x1a, 0x09, 0x90, 0xbd, 0xc7, 0xba, 0x1c, 0xbe, 0xac, 0x69, 0x4c, 0xbe,
  0x39, 0x73, 0xb3, 0xbd, 0x90, 0xef, 0x8f, 0xbc, 0x3a, 0x69, 0x87, 0x3d,
  0xf4, 0x72, 0xef, 0xbc, 0xb3, 0x2b, 0xde, 0xbd, 0x41, 0x6e, 0x36, 0x3e,
  0xdb, 0x3c, 0x54, 0x3e, 0x9e, 0x4a, 0x8e, 0xbd, 0x60, 0x3a, 0x69, 0xbd,
  0x57, 0x4a, 0x56, 0x3f, 0x2d, 0xa2, 0x59, 0x3e, 0x69, 0x20, 0x58, 0xbe,
  0xb8, 0x6d, 0x24, 0x3c, 0xca, 0xdb, 0x4d, 0xbd, 0x3c, 0xcd, 0xd0, 0xbe,
  0xde, 0x6e, 0x30, 0xbe, 0xf8, 0xc6, 0xd8, 0x3d, 0xe2, 0xfb, 0x1b, 0x3d,
  0x7f, 0x99, 0x0d, 0x3e, 0x2d, 0x87, 0x87, 0xbc, 0xa7, 0x34, 0x37, 0x3e,
  0x87, 0x7a, 0xc7, 0x3d, 0xce, 0xa2, 0xfa, 0x3c, 0x22, 0x93, 0xe4, 0x3c,
  0xd9, 0x88, 0x49, 0xbc, 0x8d, 0x21, 0x6f, 0x3f, 0xf1, 0x6c, 0xdd, 0x3d,
  0x55, 0x34, 0xf2, 0x3e, 0xfd, 0x1a, 0x4a, 0xbe, 0xc4, 0xbd, 0x60, 0x3d,
  0xce, 0xa9, 0xc3, 0xbd, 0xfb, 0x23, 0x86, 0x3d, 0x3f, 0x8e, 0x26, 0xbe,
  0xe0, 0x3f, 0x93, 0x3c, 0x77, 0x85, 0x93, 0x3e, 0x19, 0xab, 0xdc, 0x3e,
  0x51, 0x50, 0x19, 0x3f, 0x75, 0x0d, 0x76, 0x3e, 0x22, 0x19, 0xc8, 0x3c,
  0x85, 0x2b, 0x64, 0x3e, 0x48, 0x4f, 0x25, 0xbe, 0xd9, 0xc2, 0x2f, 0x3f,
  0x9c, 0xae, 0x65, 0x3e, 0xa0, 0xe5, 0xb7, 0x3e, 0x69, 0x40, 0xd5, 0x3d,
  0x11, 0x90, 0x3a, 0x3e, 0xbd, 0x33, 0xe8, 0xbd, 0x8f, 0x42, 0x09, 0x3e,
  0xec, 0xdb, 0x8c, 0x37, 0x2b, 0x5e, 0x8d, 0xbb, 0xb8, 0x68, 0xa9, 0x3e,
  0xd5, 0x46, 0xe0, 0x3e, 0x93, 0xb1, 0x5a, 0x3f, 0xf5, 0x1a, 0x19, 0x3f,
  0xbf, 0x2d, 0x07, 0x3f, 0xe2, 0xc7, 0xac, 0xbd, 0xc6, 0x75, 0xe8, 0xbe,
  0x87, 0xad, 0x56, 0x3f, 0xd8, 0xe0, 0x95, 0xbe, 0x49, 0xd3, 0xa0, 0x3c,
  0xfd, 0x84, 0xca, 0xbd, 0xcd, 0xb8, 0x51, 0x3d, 0xde, 0x7d, 0xc3, 0xbe,
  0xa0, 0x86, 0x80, 0xbe, 0x8a, 0xf2, 0xc1, 0xbc, 0xcc, 0xa2, 0xfb, 0x3b,
  0xa3, 0x0f, 0xa0, 0xbb, 0x6b, 0x20, 0x36, 0x3e, 0xe0, 0x98, 0x0e, 0x3e,
  0x75, 0x20, 0xb5, 0x3e, 0x18, 0xaa, 0xdd, 0x3e, 0x18, 0x72, 0x3b, 0xbe,
  0x30, 0x7c, 0xe3, 0xbe, 0x8d, 0x5a, 0x9c, 0x3e, 0x2f, 0x31, 0xa3, 0xbe,
  0x53, 0x26, 0x02, 0xbd, 0x08, 0x1c, 0x45, 0x3e, 0xb6, 0x20, 0x4a, 0x3c,
  0xda, 0x01, 0xa4, 0xbe, 0x02, 0x28, 0x95, 0xbe, 0x4d, 0xcb, 0xef, 0xbc,
  0x29, 0x51, 0x64, 0xbc, 0xc3, 0x95, 0x6d, 0xbc, 0x91, 0x2f, 0xc7, 0x3d,
  0xca, 0x02, 0x42, 0xbd, 0x68, 0xa1, 0x53, 0x3e, 0x02, 0x5b, 0xca, 0x3e,
  0xf3, 0xc5, 0x40, 0xbd, 0x5b, 0xc6, 0x82, 0xbe, 0xfe, 0x4f, 0x97, 0x3e,
  0xe8, 0xff, 0xc6, 0xbe, 0x07, 0xc2, 0xa2, 0x3d, 0xee, 0xbe, 0xd5, 0x3d,
  0x99, 0xb1, 0x27, 0xbd, 0x78, 0xc8, 0x97, 0xbd, 0x27, 0xab, 0xd4, 0xbd,
  0xcc, 0xc7, 0x75, 0x3d, 0x03, 0xaa, 0xf1, 0x3c, 0x16, 0x26, 0x64, 0xbc,
  0xde, 0x27, 0xa7, 0x3d, 0xfb, 0xaf, 0x22, 0xbd, 0xb6, 0x7c, 0xbe, 0x3d,
  0xc2, 0x54, 0xc8, 0x3c, 0xe3, 0x73, 0xb3, 0xbe, 0xf7, 0xad, 0x87, 0xbd,
  0x1d, 0x95, 0xba, 0x3e, 0x7f, 0x26, 0x01, 0xbd, 0x1f, 0x0b, 0x17, 0xbe,
  0x34, 0xca, 0xf7, 0x3d, 0xb9, 0xe9, 0x3f, 0xbe, 0x43, 0xa9, 0xc5, 0xbd,
  0xc7, 0xe7, 0x45, 0xbe, 0xa2, 0x54, 0x36, 0x3e, 0x9f, 0x12, 0x05, 0x3d,
  0x88, 0x6b, 0x72, 0xbc, 0xe7, 0xaa, 0x04, 0xbe, 0x6a, 0x0b, 0x06, 0xbe,
  0x5f, 0xb0, 0x1d, 0x3d, 0xe5, 0x7e, 0xe9, 0xbd, 0xa5, 0x23, 0x29, 0xbe,
  0x85, 0xdd, 0xc6, 0xbd, 0x62, 0x99, 0x11, 0x3f, 0x8c, 0xb1, 0xe8, 0xbb,
  0xe4, 0x63, 0xf1, 0x3d, 0xa4, 0x21, 0x58, 0xbe, 0x2f, 0x4a, 0x7c, 0xbc,
  0x3f, 0xeb, 0xe1, 0x3d, 0x14, 0x87, 0x89, 0x3e, 0xb6, 0x10, 0xcf, 0x3d,
  0xab, 0x2b, 0xa9, 0x3c, 0x39, 0x7a, 0xec, 0x3d, 0x6b, 0x96, 0xa7, 0xbe,
  0x7a, 0xcb, 0xcb, 0xbd, 0x49, 0x27, 0xac, 0x3c, 0x41, 0xb7, 0x2a, 0xbe,
  0x82, 0xc8, 0x3d, 0xbe, 0x7f, 0x4b, 0xa1, 0x3d, 0x4e, 0x35, 0x2d, 0x3f,
  0x80, 0x6f, 0xd4, 0x3d, 0x30, 0x21, 0x65, 0xbd, 0xc9, 0xbb, 0x6b, 0xbe,
  0xa9, 0x4f, 0x19, 0x3e, 0x8b, 0x66, 0x99, 0x3e, 0xb6, 0x82, 0x80, 0x3e,
  0xdb, 0x7f, 0xd0, 0x3d, 0x67, 0xad, 0x78, 0x3d, 0x15, 0x8c, 0x8b, 0x3e,
  0xf3, 0x9d, 0x78, 0xbe, 0x2b, 0x91, 0x1c, 0xbe, 0x2c, 0x03, 0xaf, 0x3d,
  0x8b, 0x1e, 0x70, 0xbd, 0x16, 0x91, 0x00, 0xbd, 0xc4, 0xb6, 0x8e, 0xbb,
  0xf6, 0x24, 0xb2, 0x3e, 0x41, 0x60, 0xc3, 0x3d, 0x44, 0x27, 0xa1, 0x3d,
  0x43, 0x13, 0xdf, 0xbc, 0x89, 0xae, 0x46, 0x3e, 0xcc, 0xe9, 0xcf, 0x3e,
  0x1f, 0x0c, 0xd2, 0x3e, 0x33, 0x5e, 0x11, 0x3d, 0x62, 0x86, 0x54, 0x3d,
  0x3d, 0x24, 0xd3, 0x3c, 0x3e, 0x19, 0x49, 0x3c, 0x4f, 0xb1, 0x06, 0x3b,
  0x2a, 0x96, 0xd8, 0x3a, 0x10, 0xdd, 0xfa, 0x3d, 0x8b, 0xc6, 0x56, 0xbe,
  0x69, 0x4c, 0x78, 0xbe, 0x55, 0x02, 0x9b, 0x3e, 0x56, 0x19, 0x60, 0xbd,
  0xc0, 0x44, 0x6a, 0xbd, 0xb4, 0x83, 0x91, 0xbc, 0x64, 0xf4, 0xff, 0x3c,
  0x46, 0x87, 0x87, 0x3d, 0xa6, 0xfa, 0x61, 0xbc, 0xa7, 0xec, 0xe2, 0x3c,
  0x0b, 0xe5, 0x9c, 0x3d, 0x8b, 0x67, 0x94, 0xbd, 0x32, 0x33, 0xb7, 0x3d,
  0x0e, 0x10, 0xb0, 0xbd, 0x41, 0x32, 0x98, 0x3c, 0x23, 0xd4, 0x83, 0xbd,
  0x29, 0x76, 0xb7, 0xbc, 0x3a, 0x62, 0x3a, 0xbe, 0x4d, 0xbb, 0x86, 0x3e,
  0xf5, 0x8f, 0xda, 0xbd, 0xf4, 0xd9, 0x39, 0xbd, 0x82, 0x75, 0xc9, 0x3d,
  0x26, 0xbb, 0x18, 0xbd, 0xa0, 0xb1, 0x53, 0xbd, 0x60, 0x24, 0x85, 0xbd,
  0x1f, 0x37, 0xa3, 0x3c, 0x4f, 0x21, 0x9b, 0x3c, 0x76, 0x4c, 0xa2, 0x3b,
  0xf3, 0x29, 0x48, 0xbd, 0x5d, 0x86, 0x89, 0xbd, 0x5d, 0x63, 0x0e, 0xbd,
  0x32, 0xad, 0x0f, 0x3e, 0x1e, 0xe3, 0x21, 0xbe, 0x30, 0x8e, 0x69, 0xbd,
  0x39, 0xb9, 0x28, 0x3e, 0xe5, 0xf8, 0x0c, 0xbe, 0x48, 0xc7, 0x43, 0x3c,
  0x59, 0x14, 0xcd, 0x3d, 0xf7, 0xe5, 0x83, 0xbd, 0x1e, 0x21, 0x1b, 0xbd,
  0xa6, 0x8c, 0x26, 0xbc, 0x5e, 0x8c, 0xf0, 0x3c, 0x7c, 0x3a, 0xa5, 0x3c,
  0x8e, 0x50, 0x27, 0xbe, 0x16, 0x02, 0x12, 0xbd, 0x67, 0xf7, 0xa4, 0xbd,
  0x54, 0x11, 0x10, 0x3e, 0x92, 0xf8, 0x11, 0x3d, 0xd2, 0xa1, 0x01, 0x3e,
  0xe6, 0x75, 0xde, 0x3e, 0x33, 0x75, 0x62, 0x3e, 0x5a, 0x67, 0x68, 0x3e,
  0xab, 0xf6, 0x21, 0x3e, 0xd5, 0x43, 0x45, 0xbe, 0xab, 0xa2, 0x68, 0xbd,
  0xcf, 0xb0, 0x22, 0xbc, 0xa4, 0x9c, 0x55, 0x3e, 0xea, 0x58, 0xfb, 0xbc,
  0xa0, 0x8a, 0xa5, 0xbd, 0x3a, 0x33, 0x8b, 0x3d, 0xd2, 0x72, 0x1a, 0x3e,
  0x70, 0xaa, 0xec, 0xbd, 0x36, 0x1e, 0x99, 0xbd, 0xc6, 0x56, 0x02, 0xbe,
  0xeb, 0x30, 0x41, 0x3f, 0xd4, 0x8f, 0xd7, 0x3e, 0x36, 0xda, 0xc3, 0x3d,
  0x9a, 0xc3, 0x01, 0x3d, 0xa6, 0xbe, 0x94, 0x3e, 0xb5, 0x38, 0xea, 0x3e,
  0xe7, 0x25, 0x6a, 0xbd, 0x94, 0xec, 0x87, 0xbd, 0xa5, 0xc2, 0x4e, 0xbd,
  0x38, 0xa0, 0xea, 0x3d, 0x4a, 0xad, 0x98, 0xbe, 0xec, 0x63, 0x0d, 0xbd,
  0x5b, 0x36, 0x53, 0x3e, 0x03, 0x8e, 0xcf, 0x3e, 0x52, 0xdd, 0xcb, 0x3d,
  0x35, 0x08, 0xc7, 0xbd, 0x53, 0x55, 0xba, 0xbd, 0x09, 0x09, 0x04, 0xbe,
  0x56, 0x50, 0xa3, 0x3b, 0xc1, 0xde, 0x3c, 0xbe, 0xe7, 0x76, 0xc0, 0xb9,
  0xb4, 0x16, 0x19, 0x3d, 0x51, 0x27, 0x4a, 0xbe, 0x6a, 0xbc, 0xc1, 0x3c,
  0x4d, 0xd3, 0xe2, 0x3c, 0x9f, 0xfc, 0xaa, 0x3d, 0x40, 0x06, 0xd5, 0xbe,
  0x20, 0xf9, 0xd4, 0xbd, 0x6a, 0xde, 0x20, 0x3d, 0x7c, 0xf2, 0x09, 0x3d,
  0xb6, 0xfe, 0x47, 0xbe, 0x3d, 0x95, 0x08, 0xbe, 0x65, 0xb2, 0xb6, 0x3d,
  0xef, 0xfb, 0xb5, 0xbc, 0x88, 0x88, 0x63, 0xbe, 0xb7, 0xd7, 0xa4, 0x3d,
  0x4a, 0x42, 0xfe, 0xbc, 0x6f, 0x91, 0x1d, 0x3e, 0x90, 0x93, 0x91, 0xbd,
  0x63, 0x87, 0x0c, 0xbe, 0xcb, 0x60, 0x9a, 0xbe, 0xc4, 0x13, 0x99, 0x3e,
  0x19, 0x3f, 0xa0, 0xbe, 0xf0, 0x47, 0x7a, 0x3d, 0x01, 0xda, 0xa3, 0xbe,
  0x56, 0x01, 0xc3, 0x3c, 0x69, 0x0f, 0x7c, 0xbe, 0xf4, 0xc5, 0x7e, 0xbd,
  0xc1, 0x96, 0x23, 0x3e, 0xea, 0xc3, 0x6f, 0x3d, 0x87, 0x87, 0x21, 0xbe,
  0xb8, 0x27, 0x18, 0xbe, 0xac, 0x0b, 0xbb, 0x3c, 0x80, 0x44, 0x55, 0x3d,
  0xde, 0x20, 0x15, 0xbe, 0xcb, 0x83, 0x99, 0xbc, 0x23, 0x55, 0x26, 0x3d,
  0x1f, 0xfe, 0x47, 0x3e, 0xa8, 0x5b, 0x82, 0xbe, 0x7d, 0x1c, 0x74, 0x3b,
  0xfb, 0xd4, 0xa1, 0xbd, 0x49, 0xfd, 0xe6, 0x3d, 0xc3, 0xba, 0x62, 0x3e,
  0xae, 0x51, 0x6f, 0xbe, 0x54, 0x8f, 0x3a, 0x3e, 0xbf, 0x36, 0x5b, 0xbe,
  0xad, 0xae, 0xd8, 0x3d, 0x08, 0x6f, 0x4a, 0x3d, 0x7c, 0x03, 0xc1, 0x3d,
  0x01, 0x22, 0x51, 0xbc, 0x9d, 0xce, 0x34, 0xbd, 0xf9, 0x1d, 0xee, 0xbd,
  0xac, 0x9b, 0x51, 0xbc, 0xe7, 0x7a, 0x94, 0x3e, 0x44, 0xb4, 0xdb, 0xbd,
  0xc4, 0xe1, 0x2e, 0xbe, 0x95, 0x21, 0x02, 0x3e, 0x2e, 0xdf, 0x48, 0x3e,
  0xb5, 0x3d, 0x7a, 0xbd, 0xd5, 0xe5, 0x2d, 0x3e, 0xf0, 0xfb, 0x43, 0x3e,
  0x75, 0xa9, 0x10, 0x3e, 0x05, 0x7f, 0xfb, 0x3e, 0x2a, 0xea, 0x33, 0x3f,
  0xeb, 0x9f, 0x2a, 0xbe, 0xf8, 0x28, 0xa8, 0x3d, 0x5b, 0x39, 0x5a, 0xbe,
  0x30, 0xf7, 0x71, 0x3c, 0xc8, 0x54, 0x05, 0x3e, 0xbf, 0x9d, 0x6e, 0x3e,
  0xe6, 0x9e, 0xcd, 0xbe, 0x0e, 0x06, 0x37, 0xbe, 0x4d, 0x08, 0x8b, 0x3d,
  0x11, 0x75, 0xdf, 0x3d, 0xb6, 0xe4, 0x43, 0xbb, 0xdc, 0xd2, 0x4e, 0xbe,
  0x7a, 0x5d, 0x54, 0x3e, 0x2e, 0x78, 0x82, 0xbe, 0x05, 0x5b, 0xbe, 0xbc,
  0x96, 0x29, 0x3b, 0xbe, 0x95, 0xc4, 0x27, 0x3e, 0xc9, 0xf4, 0x3b, 0x3d,
  0x6f, 0xcd, 0xb0, 0xbd, 0x41, 0xcb, 0x28, 0xbe, 0x6f, 0x83, 0xb2, 0xbe,
  0x4c, 0xc6, 0x90, 0x3d, 0xc3, 0x06, 0x6e, 0xbe, 0x16, 0x5f, 0xd6, 0xbd,
  0x3e, 0x1f, 0xf6, 0x3c, 0xe8, 0xd1, 0x85, 0xbe, 0xaa, 0x60, 0x89, 0x3e,
  0x37, 0xd8, 0x86, 0x3e, 0x01, 0xff, 0xe7, 0x3c, 0xb6, 0x19, 0x57, 0x3d,
  0x0a, 0xf1, 0x87, 0x3f, 0xaa, 0x8c, 0x8e, 0xbe, 0x56, 0x97, 0x7b, 0x3d,
  0xe2, 0xc9, 0x45, 0x3e, 0x9f, 0xfe, 0x3e, 0xbe, 0xad, 0x49, 0xa2, 0xbe,
  0xbb, 0x71, 0xa1, 0xbe, 0x17, 0xa4, 0x66, 0xbe, 0x81, 0x7d, 0x4c, 0xbe,
  0x54, 0xb3, 0xb5, 0x3d, 0x98, 0x1f, 0x63, 0x3e, 0x65, 0x60, 0x3f, 0x3e,
  0xcd, 0xc8, 0x90, 0x3e, 0x4f, 0x95, 0xfe, 0x3d, 0x34, 0x35, 0x12, 0x3e,
  0x18, 0x45, 0x8c, 0xbd, 0xe0, 0xeb, 0x01, 0x3f, 0x3b, 0x7a, 0x03, 0xbd,
  0x2e, 0xac, 0x38, 0xbd, 0xf2, 0xf2, 0x7c, 0xbc, 0x6b, 0xd7, 0x0f, 0xbe,
  0x28, 0x54, 0xd1, 0x3d, 0xed, 0xbd, 0xab, 0xbd, 0xcf, 0xc3, 0xc3, 0xbe,
  0xef, 0x71, 0x4c, 0xbd, 0x2d, 0x16, 0xc7, 0x3e, 0x33, 0xa1, 0xf5, 0x3d,
  0x6e, 0xac, 0x87, 0x3e, 0xc9, 0x73, 0xec, 0x3e, 0x5b, 0xd9, 0x8f, 0x3d,
  0x94, 0x70, 0x80, 0x3e, 0x19, 0x2c, 0x05, 0x3e, 0xb1, 0xbe, 0x19, 0x3f,
  0x9a, 0xf8, 0x56, 0xbe, 0xec, 0x32, 0x9e, 0x3e, 0x50, 0x47, 0x1e, 0x3e,
  0xfa, 0x46, 0xba, 0x3d, 0x12, 0xe2, 0xe5, 0xbd, 0xc7, 0xa8, 0xe8, 0xbd,
  0x13, 0x65, 0x28, 0xbe, 0x49, 0x69, 0x1e, 0xbe, 0x88, 0xfe, 0xdc, 0xbd,
  0xc5, 0x32, 0xce, 0x3e, 0xab, 0x13, 0x8c, 0x3d, 0x0e, 0x8b, 0xc7, 0x3e,
  0x66, 0xa3, 0xa1, 0x3e, 0x44, 0x17, 0x16, 0x3e, 0x54, 0x51, 0xb7, 0x3d,
  0xdb, 0x98, 0xec, 0x3e, 0x8e, 0xb5, 0x83, 0xbd, 0x2f, 0x53, 0xb3, 0x3d,
  0x76, 0x7b, 0xa2, 0xbc, 0x92, 0x10, 0x9e, 0x3d, 0xd2, 0xb2, 0x48, 0xbe,
  0x2d, 0x28, 0x15, 0xbd, 0xe2, 0x32, 0xb8, 0xbd, 0xf5, 0x06, 0x23, 0xbe,
  0xf2, 0x5c, 0x86, 0xbe, 0x6c, 0xc1, 0x0b, 0x3e, 0x9c, 0x59, 0x6c, 0xbc,
  0x7f, 0x38, 0xba, 0x3e, 0xad, 0xf3, 0x8c, 0x3e, 0x92, 0x2b, 0x80, 0xbd,
  0x7e, 0x48, 0xa1, 0xbe, 0x9d, 0x6a, 0x06, 0x3e, 0x41, 0xa9, 0x66, 0xbe,
  0x6b, 0x2e, 0x30, 0xbd, 0x2e, 0x78, 0x9f, 0xbe, 0x08, 0x84, 0x83, 0xbe,
  0x8b, 0xde, 0x73, 0xbe, 0x68, 0x00, 0xb1, 0xbd, 0x3a, 0xa1, 0x2f, 0xbe,
  0x2d, 0x21, 0x0a, 0xbe, 0xf2, 0xf0, 0x2f, 0x3d, 0x30, 0x16, 0xf5, 0xbd,
  0x1f, 0x2b, 0x1d, 0x3e, 0x2c, 0xc9, 0x21, 0xbd, 0x06, 0x62, 0x40, 0x3e,
  0x80, 0x8b, 0xb2, 0xbd, 0x85, 0xc8, 0x10, 0xbe, 0x2c, 0xed, 0xa5, 0x3e,
  0x4a, 0xf6, 0xa5, 0xbd, 0x2b, 0x9e, 0x1d, 0x3d, 0x3b, 0xa8, 0x6c, 0xbd,
  0x55, 0x7a, 0x0a, 0xbe, 0x60, 0x29, 0x5a, 0xbe, 0x3e, 0x0c, 0x48, 0xbe,
  0xc8, 0x94, 0xc2, 0x3d, 0xba, 0x98, 0xcf, 0xbc, 0xe2, 0x26, 0x44, 0x3e,
  0xcd, 0x38, 0xc4, 0x3d, 0xe7, 0x8c, 0x7f, 0xbd, 0xf3, 0x93, 0xb6, 0xbc,
  0xc7, 0xe3, 0x22, 0xbc, 0x68, 0x08, 0x2f, 0xbe, 0xea, 0x07, 0x1d, 0xbe,
  0x68, 0x36, 0xcb, 0xbd, 0x36, 0x22, 0xa5, 0xbc, 0x22, 0xe3, 0xef, 0xbd,
  0x53, 0xa2, 0x6a, 0xbc, 0xc4, 0x4e, 0x00, 0xbe, 0x4f, 0xca, 0xd3, 0x3d,
  0x74, 0x56, 0x38, 0x3d, 0xab, 0xe8, 0xc9, 0x3c, 0xf1, 0x08, 0x9c, 0xbe,
  0x57, 0x90, 0x9d, 0xbe, 0x76, 0x25, 0xeb, 0xbc, 0xe5, 0xfe, 0x7d, 0xbd,
  0xdd, 0xf7, 0x7e, 0xbe, 0x65, 0xc0, 0xcf, 0xbe, 0x77, 0x5e, 0x5d, 0xbd,
  0xf2, 0x3c, 0xdc, 0x3d, 0xd6, 0x4f, 0xc2, 0x3c, 0xf5, 0xa4, 0x21, 0x3e,
  0x08, 0xb3, 0x00, 0x3e, 0xdd, 0x45, 0x46, 0xbe, 0x71, 0x24, 0xf2, 0xbd,
  0x6e, 0x23, 0x8f, 0x3d, 0x1f, 0x59, 0x0f, 0xbd, 0xb1, 0xc0, 0x91, 0xbe,
  0x5c, 0xfc, 0x45, 0xbe, 0xc2, 0xab, 0x2d, 0xbf, 0x28, 0x45, 0x62, 0xbc,
  0x50, 0x01, 0xfd, 0xbd, 0x7f, 0xa0, 0x0a, 0x3d, 0x12, 0xab, 0x3f, 0xbe,
  0x0a, 0x4c, 0x2e, 0xbe, 0xee, 0x6d, 0x53, 0x3e, 0x4b, 0x27, 0x6c, 0x3d,
  0x75, 0x21, 0xfe, 0xbb, 0x0a, 0x7d, 0x35, 0xbe, 0x2d, 0x9c, 0x60, 0x3d,
  0x58, 0x8c, 0x6a, 0x3d, 0x12, 0x0e, 0x11, 0x3e, 0x34, 0x1c, 0x47, 0x3e,
  0xc5, 0xf1, 0xaf, 0xbd, 0x68, 0x35, 0x38, 0xbe, 0xbb, 0x1c, 0xcf, 0xbe,
  0xff, 0xbe, 0x85, 0xbe, 0x0d, 0x81, 0x22, 0xbe, 0x42, 0xc8, 0x04, 0xbd,
  0xe2, 0xa0, 0xd1, 0xbd, 0xf5, 0xa6, 0x4b, 0x3d, 0xf3, 0xa4, 0x02, 0x3e,
  0x84, 0xe0, 0xd8, 0xbe, 0x9c, 0x36, 0xb1, 0xbd, 0x62, 0x4e, 0xa1, 0xbe,
  0x18, 0x2b, 0xd6, 0xbd, 0x40, 0x47, 0x88, 0xbe, 0xe0, 0x85, 0x89, 0xbe,
  0x5a, 0xae, 0x03, 0xbe, 0xa3, 0xb5, 0x1b, 0xbe, 0xf2, 0x0a, 0x5d, 0xbe,
  0xc2, 0x69, 0x09, 0xbf, 0xa5, 0x17, 0xf3, 0xbd, 0x17, 0x72, 0x88, 0xbe,
  0x36, 0xe8, 0x89, 0xbc, 0x45, 0xaf, 0x3c, 0xbe, 0x32, 0x27, 0xee, 0x3c,
  0x79, 0xf0, 0xee, 0x3d, 0x7a, 0x2b, 0xc5, 0xbe, 0xd0, 0xc0, 0xbc, 0x3d,
  0xdb, 0xa6, 0x27, 0x3e, 0xa6, 0x78, 0x3b, 0x3e, 0xfe, 0x4c, 0x76, 0xbe,
  0x30, 0xf6, 0x7d, 0x3c, 0xe0, 0xd5, 0xe3, 0xbd, 0xf3, 0x56, 0x47, 0xbe,
  0x1b, 0xeb, 0x56, 0xbe, 0x97, 0x88, 0xcf, 0xbc, 0x5a, 0xd4, 0x58, 0xbd,
  0x02, 0x9c, 0x3b, 0xbd, 0xa1, 0xd4, 0x01, 0xbd, 0x32, 0xe6, 0x05, 0xbe,
  0x06, 0xf1, 0x69, 0x3d, 0xd6, 0x26, 0x2f, 0x3d, 0x23, 0x41, 0x83, 0xbe,
  0x1c, 0x94, 0xa6, 0x3e, 0x7c, 0x66, 0x47, 0x3c, 0x78, 0x25, 0x7b, 0xbd,
  0xe8, 0x72, 0x06, 0x3d, 0x83, 0xa5, 0x0a, 0xbc, 0xaa, 0x89, 0xf1, 0x3d,
  0x93, 0x45, 0x04, 0x3d, 0xbb, 0x6d, 0x90, 0xbd, 0x50, 0xf5, 0xfd, 0x3c,
  0x63, 0xfe, 0xb5, 0x3d, 0x61, 0xfb, 0x4b, 0x3e, 0x21, 0x46, 0xd7, 0xbd,
  0xe3, 0xc1, 0x48, 0xbe, 0x63, 0xe1, 0x09, 0x3e, 0x00, 0x1e, 0x2c, 0x3e,
  0x33, 0x0d, 0x71, 0x3e, 0x7c, 0x18, 0x53, 0x3e, 0xa4, 0x5c, 0x97, 0xbd,
  0xcf, 0xf9, 0x3d, 0xbe, 0x06, 0x31, 0x1f, 0xbd, 0xac, 0x08, 0xd5, 0xbd,
  0x57, 0xe9, 0x70, 0xbd, 0x2a, 0x95, 0x35, 0x3d, 0x63, 0x71, 0x30, 0xbd,
  0x10, 0x2a, 0xcd, 0xbd, 0x64, 0xef, 0x72, 0x3d, 0xcd, 0x3d, 0x6e, 0x3e,
  0x56, 0x71, 0xac, 0xbd, 0x3f, 0xd6, 0x2a, 0xbe, 0xea, 0x3f, 0x05, 0xbf,
  0xfd, 0x33, 0xc5, 0xbd, 0x74, 0xb2, 0xa8, 0x3e, 0xea, 0xdd, 0xee, 0x3c,
  0xa2, 0xd2, 0xbe, 0xbe, 0x21, 0xa2, 0xfe, 0xbd, 0x06, 0xf0, 0x33, 0xbe,
  0xa2, 0xb4, 0x1e, 0xbe, 0xe1, 0x19, 0xa7, 0xbe, 0x67, 0xe8, 0x61, 0x3e,
  0xb7, 0xa4, 0x8e, 0x3d, 0x86, 0x48, 0xa0, 0x3d, 0xfd, 0x8c, 0xb8, 0xbe,
  0x87, 0xfe, 0x54, 0xbe, 0x4a, 0xbc, 0xb0, 0xbd, 0x19, 0xdb, 0xca, 0xbe,
  0x22, 0x52, 0x03, 0x3a, 0x3f, 0xb0, 0x23, 0x3d, 0xee, 0xae, 0x6d, 0x3d,
  0x05, 0x58, 0xcc, 0x3d, 0x44, 0xe9, 0x4f, 0xbe, 0xd6, 0x88, 0x69, 0x3c,
  0x50, 0x00, 0x19, 0xbd, 0xba, 0xa2, 0xb0, 0x3e, 0x40, 0xac, 0xd1, 0x3d,
  0xea, 0x48, 0x50, 0xbb, 0xaa, 0x52, 0xc9, 0x3d, 0x4d, 0x62, 0xd3, 0x3b,
  0x4c, 0xfb, 0x81, 0xbe, 0x06, 0xcb, 0x0c, 0xbe, 0x02, 0x67, 0xc5, 0xbe,
  0x15, 0x8b, 0xba, 0xbe, 0xc5, 0x21, 0x48, 0xbe, 0x56, 0xe2, 0x3b, 0x3d,
  0x91, 0x50, 0xc7, 0x3d, 0x82, 0x9b, 0x5c, 0x3e, 0x23, 0x3f, 0xba, 0xbd,
  0x57, 0x55, 0x02, 0xbe, 0x5f, 0x76, 0x34, 0x3d, 0xd7, 0x6f, 0x88, 0x3e,
  0x2d, 0xba, 0xfd, 0x3e, 0x41, 0x68, 0x66, 0x3d, 0xa9, 0x4b, 0x4d, 0x3d,
  0x68, 0x7c, 0xc1, 0xbd, 0x9b, 0x57, 0x90, 0xbe, 0xb9, 0xcf, 0xa4, 0xbc,
  0xd8, 0x55, 0x97, 0xbe, 0x7c, 0xd9, 0x99, 0xbe, 0x4d, 0x77, 0xf2, 0xbe,
  0x6c, 0x3f, 0x02, 0xbd, 0xd4, 0x52, 0x2e, 0x3e, 0x5e, 0xb3, 0x80, 0x3d,
  0x92, 0xc0, 0xf6, 0x3c, 0x9a, 0x3a, 0x88, 0xbe, 0xf1, 0xca, 0x8d, 0x3d,
  0xdc, 0xc5, 0xc6, 0x3d, 0xb4, 0xc3, 0xae, 0x3e, 0x8b, 0x9e, 0xcc, 0x3d,
  0x26, 0x05, 0xad, 0x3d, 0x0c, 0x90, 0x39, 0xbd, 0x74, 0x76, 0x92, 0xbe,
  0x4d, 0xcb, 0xd3, 0xbd, 0x9e, 0x6b, 0x45, 0xbe, 0xbc, 0x27, 0xb6, 0xbb,
  0x10, 0x71, 0x7e, 0xbe, 0x91, 0x2d, 0x3d, 0x3d, 0xd1, 0xb6, 0x87, 0x3e,
  0xd3, 0xc6, 0x62, 0xbd, 0x5d, 0x3b, 0xdc, 0xbd, 0x41, 0x22, 0xe2, 0x3d,
  0x89, 0x61, 0x81, 0x3d, 0x5f, 0x7d, 0x2a, 0x3e, 0x8a, 0xaa, 0xb2, 0x3d,
  0x85, 0x8f, 0x92, 0x3d, 0x29, 0x3a, 0x5b, 0x3d, 0xda, 0xdd, 0x49, 0xbc,
  0xa0, 0xe1, 0x7e, 0xbe, 0xa4, 0x40, 0x27, 0xbe, 0x2e, 0x77, 0x25, 0x3c,
  0x59, 0x68, 0x7a, 0xbe, 0x55, 0x66, 0x3e, 0xbe, 0x2a, 0x83, 0xfe, 0xbd,
  0xb3, 0x3c, 0x47, 0xbe, 0x80, 0x1b, 0x04, 0xbd, 0x4b, 0x08, 0xd3, 0xbe,
  0xd0, 0x47, 0x53, 0xbe, 0x9c, 0x40, 0xa0, 0x3c, 0xbd, 0x36, 0xc0, 0x3d,
  0x32, 0x4d, 0x8c, 0xbd, 0x9c, 0x40, 0x49, 0x3e, 0x9e, 0xe3, 0x7d, 0x3d,
  0xa8, 0xce, 0x0a, 0xbe, 0xaf, 0x0e, 0x16, 0xbf, 0x5f, 0xf2, 0x1c, 0xbf,
  0x3f, 0x6b, 0xe0, 0xbe, 0x2b, 0x59, 0x77, 0xbe, 0x73, 0x9b, 0xaf, 0xbe,
  0xd4, 0xf6, 0x31, 0x3c, 0x01, 0x80, 0x71, 0xbd, 0x7a, 0x0c, 0x98, 0xbd,
  0x0d, 0x62, 0x2b, 0xbe, 0x75, 0x40, 0xb4, 0x3d, 0x91, 0x44, 0x27, 0xbe,
  0x70, 0x65, 0x2a, 0xbd, 0x13, 0xa3, 0x15, 0xbc, 0x11, 0x79, 0xb4, 0x3d,
  0xf5, 0xe6, 0x6c, 0xbb, 0xf8, 0x59, 0xf5, 0xbd, 0x93, 0xcb, 0x78, 0xbe,
  0x60, 0x6d, 0x08, 0xbe, 0x52, 0xbd, 0x14, 0xbd, 0xe9, 0x8e, 0x36, 0xbc,
  0x05, 0x49, 0x05, 0x3e, 0xda, 0xbd, 0x6b, 0xbd, 0x88, 0x4e, 0x2e, 0xbe,
  0x4c, 0x7a, 0x61, 0xbe, 0xbe, 0x38, 0x98, 0x3d, 0x24, 0xaa, 0xba, 0xbd,
  0x4d, 0x34, 0xd5, 0xbd, 0xfe, 0xaa, 0xb8, 0x3d, 0xe5, 0x8a, 0x80, 0xbc,
  0x87, 0x7e, 0x32, 0x3e, 0x64, 0x28, 0x83, 0xbd, 0x49, 0xce, 0xc3, 0x3d,
  0x37, 0xc0, 0x66, 0xbe, 0xb9, 0x72, 0xa1, 0xbb, 0x96, 0xab, 0x01, 0xbe,
  0x40, 0x72, 0x1a, 0xbe, 0xa5, 0x44, 0x40, 0xbe, 0xcd, 0x65, 0xcf, 0xbd,
  0x47, 0x6d, 0xad, 0x3d, 0x0f, 0xd9, 0xf1, 0xbd, 0x0a, 0x47, 0xec, 0xbd,
  0xec, 0x71, 0x64, 0xbe, 0x57, 0x4a, 0x13, 0xbe, 0x1d, 0x70, 0x30, 0x3d,
  0x40, 0xd1, 0x14, 0xbe, 0x63, 0x8e, 0x6b, 0xbe, 0x35, 0xb2, 0x37, 0xbe,
  0xcc, 0xfe, 0x1a, 0x3e, 0x87, 0xc3, 0xd0, 0x3d, 0xa0, 0x4d, 0x0c, 0x3e,
  0x5b, 0x3e, 0x28, 0x3c, 0xa4, 0xac, 0x88, 0x3d, 0x39, 0x8a, 0x5d, 0xbe,
  0x94, 0x80, 0x07, 0xbe, 0xd7, 0xc9, 0x53, 0xbe, 0x89, 0xf7, 0xfa, 0xbd,
  0xbd, 0x76, 0x2b, 0x3e, 0x89, 0x2d, 0x04, 0x3c, 0xed, 0xe8, 0x30, 0xbe,
  0xaf, 0x0c, 0x23, 0x3e, 0x12, 0x68, 0x2a, 0x3e, 0xfd, 0x26, 0xfc, 0x3d,
  0x00, 0xca, 0x27, 0xbe, 0x52, 0xb5, 0x5b, 0xbe, 0x82, 0x4a, 0x75, 0x3d,
  0x39, 0xd2, 0xbc, 0xbd, 0x82, 0x9e, 0x41, 0x3c, 0x38, 0xf3, 0x11, 0xbe,
  0x3d, 0x71, 0xee, 0x3c, 0xd6, 0xe9, 0x07, 0xbe, 0x17, 0xe9, 0xba, 0xbd,
  0xee, 0xa2, 0x86, 0x3c, 0xf2, 0x8f, 0x9a, 0xba, 0x06, 0x12, 0xfd, 0xbd,
  0x5d, 0xcd, 0x16, 0x3d, 0x7c, 0x6a, 0x65, 0xbd, 0x85, 0x01, 0x1c, 0xbe,
  0x44, 0x71, 0xcd, 0xbd, 0xb9, 0xbe, 0xac, 0xbe, 0x42, 0x8f, 0x4b, 0x3d,
  0xd6, 0xd0, 0xcb, 0x3d, 0xbe, 0x44, 0x1e, 0xbe, 0x42, 0xd6, 0xa0, 0xbd,
  0x2f, 0xd8, 0xa2, 0x3d, 0x41, 0xf8, 0xf8, 0xbc, 0x8b, 0xd9, 0x2e, 0x3e,
  0x1c, 0x94, 0x86, 0xbd, 0xff, 0x0b, 0x3c, 0xbe, 0xa2, 0x10, 0xdb, 0xbd,
  0x4a, 0xf5, 0x02, 0x3d, 0x90, 0x15, 0x92, 0x3d, 0x03, 0x6a, 0x48, 0xbd,
  0x17, 0x49, 0x38, 0x3e, 0xd2, 0xd8, 0xa9, 0xbd, 0x96, 0x3c, 0xcc, 0xbe,
  0xb0, 0x47, 0x45, 0xbe, 0x12, 0x3c, 0x31, 0xbd, 0xab, 0xcb, 0xf2, 0x3d,
  0x9b, 0xc2, 0x7b, 0xbe, 0x51, 0x42, 0x23, 0xbe, 0x7b, 0xc7, 0x68, 0xbc,
  0xa9, 0xf7, 0x69, 0xbd, 0x47, 0x03, 0xcf, 0x3d, 0x6c, 0x7e, 0x60, 0xbe,
  0x02, 0x42, 0x69, 0xbe, 0xd6, 0x44, 0x02, 0x3d, 0x0e, 0x91, 0x35, 0xbe,
  0xbe, 0xd9, 0xdb, 0x3d, 0xf0, 0x67, 0x2f, 0xbd, 0x1f, 0x46, 0xe7, 0x3d,
  0x94, 0x00, 0xd4, 0xbe, 0x61, 0x28, 0x5e, 0xbe, 0x1a, 0xf3, 0xcf, 0xbd,
  0x31, 0x15, 0x4a, 0x3d, 0x0c, 0xf9, 0x46, 0xbe, 0x2d, 0xf7, 0x2f, 0xbc,
  0x0c, 0xbd, 0xeb, 0x3d, 0x10, 0x33, 0x4e, 0x3d, 0x5d, 0x98, 0x5c, 0xbe,
  0x16, 0xe8, 0xf5, 0xba, 0x99, 0x46, 0x4a, 0xbe, 0xbd, 0xf3, 0xcc, 0xbd,
  0x6f, 0xd2, 0x6e, 0xbd, 0x8b, 0x4b, 0x72, 0x3d, 0x3a, 0xb0, 0x7e, 0xbd,
  0x3a, 0xe4, 0xd3, 0xbc, 0x83, 0x8f, 0x9a, 0xbe, 0xaf, 0xc9, 0xa5, 0xbd,
  0x8a, 0xad, 0x3d, 0xbe, 0x16, 0x1f, 0xb6, 0x3d, 0x1f, 0xf6, 0x1a, 0x3d,
  0x16, 0x37, 0x65, 0xbe, 0x81, 0xd3, 0x9c, 0xbd, 0xf6, 0x25, 0xca, 0x3b,
  0xa2, 0x20, 0x5c, 0xbe, 0x06, 0xe9, 0xcf, 0xbd, 0x60, 0x0b, 0x71, 0xbc,
  0xbe, 0xf2, 0xb4, 0xbc, 0x10, 0xc1, 0xb7, 0x3d, 0x4e, 0xad, 0x31, 0xbc,
  0x06, 0xe5, 0x14, 0xbe, 0xd9, 0x46, 0x39, 0xbc, 0xf0, 0xf6, 0x9d, 0xbe,
  0x69, 0xb8, 0x64, 0xbd, 0x08, 0xc8, 0x63, 0x3d, 0xa8, 0x36, 0x3b, 0xba,
  0x4a, 0x43, 0x0a, 0xbd, 0x76, 0x44, 0xbe, 0xbd, 0x0d, 0x42, 0xd5, 0xbc,
  0xdb, 0x83, 0x34, 0xbe, 0x52, 0x5a, 0x53, 0xbc, 0x6b, 0xce, 0x0f, 0xbe,
  0x61, 0x86, 0xe7, 0x3b, 0x10, 0x29, 0x95, 0x3d, 0x4b, 0xd7, 0xf3, 0x3d,
  0xd8, 0x6a, 0x1a, 0xbd, 0xd8, 0xb7, 0x0a, 0x3d, 0xcd, 0x86, 0xc4, 0x3d,
  0xf5, 0x57, 0x07, 0xbf, 0xb1, 0x5f, 0x87, 0xbd, 0x02, 0x4b, 0xf4, 0xbd,
  0xd6, 0xe7, 0x05, 0x3e, 0xaf, 0xe0, 0x10, 0xbe, 0xdd, 0x48, 0x5e, 0xbe,
  0x33, 0x77, 0x0a, 0x3e, 0x88, 0x61, 0x1f, 0xbe, 0x7b, 0x10, 0xa4, 0x3d,
  0x7e, 0xd6, 0xeb, 0x3d, 0xf3, 0x07, 0x5a, 0xbd, 0x4c, 0x7a, 0xbc, 0x3d,
  0x97, 0x2f, 0xc7, 0xbd, 0x8f, 0x1c, 0xfa, 0xbd, 0x20, 0x4d, 0x12, 0x3e,
  0xcd, 0x9a, 0xb9, 0x3d, 0xd5, 0xd8, 0x59, 0xbe, 0xab, 0x05, 0x50, 0xbe,
  0xec, 0x07, 0x3a, 0x3e, 0x5a, 0x4d, 0xb6, 0xbd, 0x70, 0x16, 0xbd, 0xbc,
  0x18, 0xe5, 0xb4, 0xbd, 0xc4, 0x70, 0x30, 0x3e, 0x8d, 0x93, 0x4b, 0x3e,
  0x60, 0x61, 0xe3, 0x3d, 0x3a, 0x44, 0x15, 0x3b, 0x54, 0xb9, 0xc7, 0xbd,
  0x33, 0xb4, 0x24, 0xbe, 0xa2, 0x81, 0x75, 0xbe, 0x65, 0x10, 0x21, 0xbe,
  0x00, 0x41, 0xcf, 0x3c, 0x61, 0xc9, 0x25, 0x3c, 0x5b, 0xfd, 0x73, 0xbe,
  0xe2, 0x05, 0x71, 0xbe, 0x5b, 0x4d, 0x1a, 0xbe, 0x12, 0x96, 0xff, 0xbd,
  0x71, 0x23, 0xe9, 0x3b, 0xc8, 0xe7, 0xc8, 0xbc, 0xc7, 0x84, 0xfd, 0xbc,
  0x77, 0x51, 0xcf, 0x3c, 0xae, 0xd7, 0x53, 0xbd, 0x43, 0xb8, 0x4c, 0xbe,
  0xf8, 0x24, 0xf0, 0xbd, 0x49, 0x84, 0x6e, 0xbe, 0x38, 0x9c, 0x64, 0x3c,
  0x2a, 0x9b, 0x9c, 0x3d, 0x4d, 0xe3, 0x20, 0xbc, 0x08, 0x07, 0xaa, 0xbc,
  0x74, 0x37, 0xef, 0xbd, 0x69, 0x3e, 0x32, 0xbe, 0xcd, 0xfd, 0x29, 0x3d,
  0xcf, 0x36, 0x50, 0xbe, 0x0b, 0xc9, 0x11, 0x3e, 0xbd, 0x7a, 0x0d, 0x3d,
  0xcb, 0x5d, 0x2f, 0x3e, 0xd8, 0x81, 0xed, 0xbd, 0x4a, 0x45, 0x1e, 0x3e,
  0x12, 0xe0, 0x60, 0xbe, 0x5e, 0xaa, 0x8a, 0xbd, 0x7d, 0x72, 0x03, 0xbd,
  0xe5, 0xa0, 0x19, 0xbe, 0x2e, 0xeb, 0x2d, 0xbe, 0x20, 0x90, 0x82, 0x3d,
  0x4a, 0xbb, 0x34, 0xbe, 0x9b, 0x41, 0x81, 0xbe, 0x7b, 0xc0, 0x1a, 0x3d,
  0xc7, 0xc1, 0x8c, 0x3d, 0xe5, 0xbd, 0xa6, 0x3c, 0x7f, 0x52, 0xdf, 0x3c,
  0x12, 0xe3, 0x09, 0xbe, 0x43, 0x21, 0x8f, 0x3c, 0x02, 0x87, 0x75, 0xbe,
  0xbb, 0x11, 0x13, 0xbe, 0x6e, 0x1a, 0x07, 0xbd, 0xed, 0x13, 0x1c, 0xbe,
  0x9d, 0xa9, 0x8f, 0xbd, 0xe2, 0x7d, 0xba, 0xbd, 0x65, 0x66, 0xa5, 0x3d,
  0x54, 0x09, 0x34, 0x3d, 0x0a, 0xd6, 0x3b, 0xbc, 0xa3, 0x64, 0x40, 0xbe,
  0x51, 0xd6, 0x8a, 0x3c, 0x30, 0xbf, 0x65, 0x3d, 0x88, 0xf9, 0x9c, 0xbd,
  0x59, 0xed, 0x26, 0xbe, 0x5e, 0x5d, 0xad, 0x3c, 0x03, 0x4e, 0xcc, 0xbe,
  0x8d, 0x25, 0xc7, 0xbc, 0x9c, 0xf4, 0xc7, 0x3e, 0xca, 0x17, 0x54, 0x3c,
  0x25, 0x15, 0x1e, 0xbe, 0xdb, 0xf8, 0x3f, 0xbd, 0x20, 0x51, 0x6e, 0xbe,
  0x0c, 0x35, 0xb3, 0xbd, 0x12, 0xea, 0xcf, 0xbd, 0x48, 0xa1, 0x8f, 0x3e,
  0x30, 0x0b, 0x82, 0x3d, 0x59, 0x26, 0x18, 0x3d, 0x55, 0x92, 0x8f, 0xbe,
  0x6f, 0xfa, 0xd7, 0xbd, 0xb7, 0xcc, 0x6a, 0xbe, 0x0d, 0x48, 0xe3, 0xbe,
  0x8e, 0x21, 0x6c, 0x3c, 0xd5, 0xe6, 0x0b, 0xbe, 0xad, 0x4a, 0xbe, 0x3d,
  0x60, 0x0f, 0xd5, 0xbd, 0x60, 0x20, 0x90, 0x3d, 0x70, 0x1b, 0x50, 0x3d,
  0xf2, 0x97, 0xdb, 0xbc, 0x8f, 0x55, 0xde, 0x3e, 0xd8, 0x99, 0x5f, 0x3e,
  0xdd, 0x57, 0xe8, 0xbc, 0x53, 0xf7, 0x6b, 0x3d, 0xc5, 0xbe, 0x35, 0x3e,
  0xe2, 0x80, 0x12, 0xbe, 0xc0, 0x67, 0x59, 0xbe, 0x6b, 0x41, 0x10, 0xbf,
  0x1e, 0x25, 0x13, 0xbf, 0x62, 0x4b, 0x48, 0xbd, 0x68, 0x4d, 0x2c, 0x3e,
  0xe1, 0x7c, 0x80, 0x3e, 0x80, 0xaa, 0x9f, 0x3c, 0xc7, 0xe7, 0x07, 0x3d,
  0x8c, 0x93, 0xc1, 0xbd, 0xd3, 0xbb, 0x99, 0x3d, 0xb1, 0xc9, 0xe6, 0x3e,
  0x8b, 0x13, 0xcd, 0x3e, 0xb6, 0xe9, 0xb9, 0x3d, 0x81, 0x0d, 0x93, 0x3d,
  0x7f, 0x99, 0x26, 0xbd, 0x7a, 0xb3, 0x0a, 0xbd, 0xad, 0x4f, 0xb6, 0xbd,
  0xd8, 0xc9, 0x20, 0xbf, 0xc7, 0x4f, 0x23, 0xbe, 0x54, 0x68, 0x3c, 0xbe,
  0x29, 0x68, 0x12, 0x3e, 0xc2, 0x14, 0x93, 0x3e, 0x8b, 0x97, 0xb4, 0x3d,
  0x09, 0x88, 0xaa, 0x3e, 0x2b, 0xf3, 0x0b, 0x3c, 0x4a, 0x45, 0x00, 0x3d,
  0x19, 0xd9, 0x4a, 0x3e, 0xf2, 0xed, 0x03, 0x3e, 0x58, 0x97, 0xf6, 0x3d,
  0xdb, 0x2f, 0x42, 0x3d, 0x9a, 0x00, 0xe2, 0x3c, 0x40, 0x49, 0x32, 0x3e,
  0xde, 0x27, 0xf8, 0xbc, 0x15, 0xf3, 0xb2, 0xbe, 0x0c, 0x4e, 0x94, 0xbe,
  0xb3, 0xd0, 0x92, 0xbe, 0xc3, 0x3a, 0x74, 0x3d, 0x41, 0x6c, 0x69, 0x3e,
  0x19, 0x86, 0xa0, 0xbd, 0xa5, 0xb0, 0x6f, 0x3d, 0x0f, 0x88, 0xff, 0xbd,
  0xe8, 0x17, 0xb8, 0x3d, 0xcc, 0x3e, 0x93, 0x3e, 0x75, 0xcd, 0x67, 0x3e,
  0xc7, 0x93, 0xaa, 0x3d, 0xdd, 0xc2, 0x9e, 0x3d, 0xdc, 0xb5, 0xe3, 0xbd,
  0x93, 0x40, 0x10, 0xbe, 0xe0, 0xdb, 0x4a, 0xbe, 0x7a, 0x38, 0xcb, 0xbe,
  0xac, 0xd5, 0xd4, 0xbe, 0xcc, 0xad, 0xc6, 0xbe, 0x5e, 0xbd, 0x59, 0xbe,
  0x88, 0x27, 0x38, 0xbe, 0xaf, 0xd4, 0x19, 0xbe, 0x8b, 0xc7, 0xc0, 0xbe,
  0x61, 0x9f, 0x81, 0xbe, 0x59, 0x03, 0xcf, 0x3d, 0xf1, 0xbf, 0x11, 0x3e,
  0x93, 0x00, 0x21, 0xbb, 0xbe, 0x46, 0xb1, 0x3d, 0x74, 0xa4, 0x57, 0x3d,
  0xd2, 0x6a, 0x3d, 0xbe, 0xf9, 0x34, 0xc7, 0xbe, 0x46, 0x54, 0x93, 0xbe,
  0xda, 0x41, 0x7e, 0xbf, 0x5f, 0x43, 0xcf, 0xbe, 0x8e, 0xf8, 0x7c, 0xbe,
  0x7e, 0x76, 0xe6, 0xbd, 0xff, 0x83, 0xc5, 0xbc, 0x06, 0xb5, 0x10, 0xbe,
  0x76, 0x00, 0x07, 0xbe, 0x9f, 0x81, 0xf6, 0x3c, 0x80, 0x17, 0xff, 0xbc,
  0x39, 0x67, 0x83, 0x3d, 0x18, 0x0e, 0x33, 0x3c, 0xfd, 0x36, 0x91, 0x3c,
  0x80, 0x0a, 0x3a, 0x3d, 0x4d, 0xf0, 0x82, 0xbe, 0xdd, 0xa5, 0x93, 0xbe,
  0x0b, 0x06, 0x32, 0xbd, 0xe6, 0xce, 0x30, 0xbd, 0x4d, 0x50, 0xa4, 0xbb,
  0x9d, 0xdb, 0x30, 0xbd, 0xf2, 0xaf, 0x2e, 0xbd, 0x01, 0xe2, 0x94, 0x3d,
  0x2c, 0x74, 0x92, 0x3d, 0x87, 0x67, 0xac, 0xbd, 0x6b, 0xe1, 0x65, 0x3d,
  0xb9, 0x69, 0x8e, 0xbc, 0x0f, 0x81, 0x7e, 0xbe, 0x0d, 0x89, 0x27, 0xbd,
  0xda, 0x81, 0xe6, 0x3e, 0xe1, 0xde, 0x5c, 0xbe, 0x98, 0x8c, 0x52, 0xbe,
  0x32, 0x7d, 0x0c, 0xbe, 0x7b, 0x92, 0x6d, 0xbd, 0xdb, 0xfd, 0x77, 0x3d,
  0x6f, 0x97, 0x88, 0xbd, 0xb4, 0x84, 0x52, 0xbd, 0x8a, 0x6e, 0x15, 0xbe,
  0x37, 0x6a, 0xc0, 0x3d, 0x89, 0xbc, 0xc1, 0x3d, 0x98, 0x66, 0x15, 0x3e,
  0x00, 0x6b, 0x51, 0xbe, 0xc5, 0x73, 0xd1, 0x3c, 0x65, 0x10, 0x60, 0xbe,
  0x94, 0xef, 0x7c, 0xbe, 0x52, 0x7f, 0x02, 0x3e, 0x95, 0x4a, 0x0d, 0xbe,
  0xc3, 0xb4, 0x1e, 0xbe, 0xba, 0xe8, 0x03, 0xbe, 0x6b, 0x17, 0x95, 0xbe,
  0xb4, 0xee, 0x5d, 0xbe, 0x47, 0xec, 0x45, 0xbd, 0x65, 0xa5, 0x2e, 0xbe,
  0xfb, 0xc3, 0xd7, 0xbd, 0x76, 0xae, 0x1d, 0xbe, 0x42, 0x4c, 0xd6, 0xbd,
  0x5c, 0xaa, 0xb1, 0xbc, 0x49, 0x41, 0xfe, 0x3d, 0xab, 0xcc, 0xd7, 0xbd,
  0x76, 0x0b, 0x89, 0x3b, 0xba, 0x6b, 0x9f, 0xbd, 0x90, 0x74, 0x86, 0x3e,
  0x98, 0x98, 0x04, 0x3e, 0x24, 0xf0, 0x9f, 0xbd, 0xb2, 0x5b, 0x14, 0x3e,
  0x9f, 0x75, 0x15, 0x3e, 0x98, 0xa9, 0x0a, 0x3e, 0xc0, 0x2d, 0x21, 0xbe,
  0xe1, 0xf4, 0x39, 0x3e, 0xd3, 0xbf, 0x52, 0x3c, 0x58, 0x1d, 0x6b, 0xbe,
  0x2f, 0x41, 0xf0, 0x3d, 0x17, 0x20, 0x34, 0x3e, 0x50, 0x5e, 0x2e, 0x3d,
  0xec, 0x60, 0x8d, 0x3d, 0x55, 0x41, 0xbd, 0x3d, 0x96, 0x83, 0x63, 0xbe,
  0x58, 0x21, 0x89, 0x3e, 0x3e, 0x62, 0x02, 0xbe, 0x68, 0x8a, 0x21, 0xbe,
  0x5b, 0xcf, 0xac, 0xbd, 0xd8, 0x7c, 0x59, 0xbb, 0xf8, 0xc7, 0xc1, 0xbd,
  0x4b, 0xdd, 0x0e, 0xbe, 0x3c, 0xa8, 0x12, 0xbe, 0x0a, 0x2e, 0xb0, 0xbb,
  0x96, 0xb4, 0xac, 0xbd, 0xfa, 0xd6, 0xad, 0x3d, 0xef, 0x5a, 0x4a, 0xbe,
  0x72, 0x91, 0x2c, 0xbe, 0x73, 0xf3, 0x5e, 0xbd, 0x0f, 0xd5, 0x88, 0xbe,
  0xf3, 0x9c, 0xc5, 0xbd, 0x5a, 0x7a, 0x4a, 0x3e, 0x71, 0x2a, 0x87, 0xbe,
  0xf8, 0x3e, 0x0e, 0xbe, 0xa6, 0x46, 0x76, 0xbe, 0xad, 0xa6, 0xb7, 0xbd,
  0x97, 0x8b, 0x25, 0x3c, 0x21, 0xf7, 0x46, 0x3d, 0x27, 0xfe, 0xef, 0xbd,
  0x2e, 0x6c, 0x8f, 0xbd, 0xb4, 0x38, 0x21, 0xbd, 0xa7, 0xdb, 0x85, 0xbe,
  0x75, 0xb2, 0x02, 0x3c, 0x64, 0xaf, 0x59, 0xbe, 0x0d, 0x1e, 0x3c, 0xbe,
  0x03, 0x55, 0xf6, 0xbd, 0x86, 0x43, 0xcd, 0x3b, 0x9c, 0x39, 0x3b, 0x3e,
  0x52, 0x72, 0x1c, 0x3d, 0x8c, 0x34, 0x2c, 0xbe, 0xfa, 0xd5, 0x56, 0xbe,
  0xef, 0x6c, 0x60, 0xbd, 0x73, 0x9c, 0x58, 0xbe, 0x1d, 0x13, 0xaf, 0xbd,
  0x1a, 0xe8, 0x13, 0x3e, 0x32, 0xfc, 0x4b, 0xbe, 0x70, 0x5b, 0x11, 0x3e,
  0xd3, 0x25, 0x9f, 0xbe, 0xd4, 0x71, 0xb1, 0xbd, 0x8b, 0xe7, 0xb2, 0x3d,
  0x03, 0x00, 0x40, 0xbe, 0x74, 0xd8, 0x58, 0x3d, 0xd9, 0x06, 0xb1, 0x3d,
  0x2f, 0x91, 0x58, 0x3e, 0xc5, 0xaf, 0xcf, 0x3d, 0x54, 0xf4, 0x27, 0xbd,
  0x2f, 0xa8, 0x11, 0xbe, 0xa6, 0xaf, 0xbe, 0xbd, 0xf8, 0x80, 0x72, 0xbe,
  0xb5, 0x7d, 0x83, 0xbe, 0x65, 0xa2, 0x7c, 0x3e, 0xb7, 0x4c, 0xe3, 0xbe,
  0xbe, 0xd6, 0x78, 0xbd, 0x76, 0x73, 0xa2, 0xbe, 0x98, 0xa0, 0x93, 0x3d,
  0x49, 0xfa, 0xa5, 0x3e, 0x87, 0xe2, 0x88, 0x3d, 0x9d, 0x52, 0x24, 0xbe,
  0xaa, 0x18, 0x3b, 0xbe, 0xb5, 0x36, 0xcc, 0xbe, 0x32, 0x39, 0xf1, 0xbc,
  0x07, 0xc8, 0x45, 0x3e, 0xbf, 0xa7, 0x01, 0xbc, 0x6f, 0x58, 0xbb, 0xbd,
  0x82, 0x57, 0x83, 0x3e, 0xf9, 0xe1, 0x0d, 0x3e, 0x05, 0x8e, 0x01, 0xbf,
  0x84, 0x36, 0x17, 0xbd, 0x8b, 0x45, 0x00, 0x3f, 0xd0, 0x24, 0x17, 0xbe,
  0x9a, 0x7a, 0x97, 0xbd, 0xbf, 0x11, 0x22, 0xbe, 0x9b, 0x29, 0xe0, 0x3d,
  0x7e, 0xed, 0x43, 0xbe, 0xde, 0x62, 0x6b, 0xbe, 0xfd, 0xe1, 0x55, 0x3d,
  0x9e, 0x6d, 0x21, 0xbd, 0xb9, 0x04, 0xb6, 0xbd, 0xbd, 0x93, 0x15, 0x3d,
  0x71, 0x0c, 0x6b, 0x3e, 0xd2, 0x99, 0x8c, 0x3e, 0xbd, 0x99, 0x9e, 0x3d,
  0xac, 0xd4, 0x99, 0xbd, 0x5f, 0x1e, 0xaf, 0xbd, 0xe1, 0x27, 0x08, 0x3f,
  0x66, 0xb1, 0x92, 0xbe, 0x69, 0x30, 0x01, 0x3f, 0x26, 0x53, 0x67, 0xbd,
  0xe8, 0xf8, 0x15, 0xbd, 0xca, 0xb1, 0x0b, 0xbe, 0x1a, 0x35, 0xb7, 0x3d,
  0x84, 0x43, 0xa4, 0xbc, 0x97, 0xcd, 0x7b, 0xbd, 0xa5, 0xbe, 0x3a, 0x3d,
  0x26, 0xa9, 0x96, 0x3e, 0x4e, 0xbc, 0xe4, 0x3e, 0x57, 0xae, 0xa7, 0x3e,
  0x4b, 0x26, 0x57, 0x3c, 0x4c, 0xcf, 0xfd, 0xbc, 0xb6, 0x09, 0xed, 0xbd,
  0x55, 0x05, 0xf4, 0x3e, 0x7d, 0x0d, 0x5e, 0xbe, 0x00, 0x6a, 0x01, 0x3f,
  0x62, 0xbf, 0x53, 0x3c, 0x65, 0xe6, 0x48, 0xbe, 0x04, 0x0b, 0x49, 0xbe,
  0xef, 0xa7, 0x10, 0xbe, 0x1b, 0x89, 0xdd, 0xb9, 0x90, 0x22, 0xa5, 0xbd,
  0x80, 0x74, 0x2d, 0x3e, 0xc5, 0xda, 0x25, 0x3f, 0x4b, 0xdf, 0x13, 0x3f,
  0xc3, 0xea, 0xa3, 0x3e, 0xf0, 0xdc, 0x33, 0x3c, 0xdb, 0x39, 0xef, 0x3d,
  0xeb, 0x55, 0xb9, 0xbe, 0x25, 0x4e, 0x20, 0x3f, 0x95, 0x09, 0x00, 0xbf,
  0xb6, 0x28, 0x99, 0x3e, 0x32, 0x74, 0x09, 0x3e, 0xb6, 0x74, 0x27, 0xbd,
  0x67, 0x40, 0xc8, 0xbe, 0xd1, 0xf1, 0xe9, 0xbe, 0x0e, 0x62, 0xc1, 0x3d,
  0x38, 0xdb, 0xd9, 0xbc, 0x8a, 0x64, 0x6f, 0x3d, 0x7b, 0xe3, 0xc7, 0x3e,
  0xcf, 0x36, 0xa8, 0x3e, 0x7a, 0xb2, 0x4e, 0x3e, 0x31, 0xec, 0x6b, 0x3e,
  0x4b, 0x67, 0x50, 0x3e, 0x2d, 0x77, 0x8b, 0xbd, 0x83, 0x33, 0x75, 0x3e,
  0x7c, 0xa4, 0x5d, 0xbe, 0x6e, 0xd4, 0xc5, 0x3d, 0xf1, 0x3a, 0xd9, 0xbd,
  0x57, 0x9a, 0x52, 0xbe, 0xf3, 0xfd, 0x6b, 0xbe, 0xf9, 0x01, 0xa7, 0xbd,
  0x1e, 0xa2, 0xb0, 0xbc, 0x1f, 0x74, 0xac, 0xbd, 0x1d, 0x70, 0x54, 0xbd,
  0xa2, 0x77, 0xf1, 0x3b, 0xfb, 0xf8, 0xc3, 0x3d, 0xbb, 0xf6, 0x92, 0x3e,
  0x3e, 0x36, 0x38, 0x3d, 0xbe, 0x9e, 0x30, 0x3d, 0x90, 0xca, 0xbc, 0xbe,
  0xc7, 0xe5, 0xc6, 0x3e, 0x67, 0xf5, 0x55, 0xbd, 0x7b, 0x54, 0x06, 0xbd,
  0xe2, 0xd1, 0xc7, 0x3b, 0xbb, 0x62, 0x31, 0xbe, 0x30, 0xce, 0x20, 0x3d,
  0xcf, 0x46, 0x9b, 0xbe, 0x0d, 0xce, 0x14, 0xbe, 0xc4, 0xb6, 0x55, 0xbd,
  0xbf, 0x29, 0xc2, 0x3d, 0xe5, 0xd8, 0xc6, 0xbc, 0x84, 0xc1, 0x35, 0x3c,
  0xcb, 0x5d, 0x99, 0xbd, 0x77, 0x3f, 0x13, 0xbd, 0xee, 0x64, 0xca, 0x3d,
  0x83, 0xb0, 0x4f, 0x3d, 0x23, 0x81, 0xd4, 0xbc, 0xd2, 0x32, 0xb7, 0x3b,
  0xc3, 0x70, 0x84, 0xbe, 0x22, 0xd3, 0x2a, 0xbe, 0x1d, 0x50, 0xf3, 0xbd,
  0x3e, 0xd3, 0x54, 0xbe, 0x40, 0x04, 0x5f, 0xbe, 0x5d, 0x5a, 0x43, 0xbd,
  0xaf, 0x27, 0x54, 0xbe, 0x41, 0xec, 0x3b, 0x3d, 0x66, 0xe8, 0x3a, 0x3d,
  0x79, 0x0e, 0x86, 0xbb, 0x9c, 0x8a, 0xe1, 0xbd, 0x09, 0xb0, 0xf7, 0xbc,
  0x2c, 0x66, 0xa5, 0xbd, 0xc8, 0x2b, 0x46, 0xbe, 0x08, 0x9b, 0x01, 0xbe,
  0xfa, 0x77, 0x23, 0xbe, 0x31, 0x8c, 0x2b, 0xbd, 0xd4, 0x3d, 0x3e, 0xbe,
  0x3e, 0x35, 0xed, 0xbd, 0xf6, 0xb4, 0x13, 0x3c, 0xc9, 0x9a, 0x93, 0xbe,
  0xb3, 0x83, 0x98, 0xbd, 0x79, 0x1d, 0x1a, 0xbe, 0xcc, 0x4b, 0x13, 0xbe,
  0xe1, 0xf3, 0x11, 0x3e, 0xcd, 0xd2, 0x1c, 0x3d, 0xab, 0x8a, 0x2f, 0x3d,
  0x27, 0x26, 0x3c, 0x3c, 0x16, 0x14, 0x63, 0xbe, 0xa9, 0xd2, 0xd4, 0x3b,
  0xa4, 0x47, 0x48, 0x3d, 0x34, 0xf3, 0x66, 0xbe, 0xa9, 0x28, 0x8a, 0xbd,
  0x94, 0xf8, 0x8a, 0x3d, 0xdc, 0x2a, 0xd3, 0xbc, 0xa6, 0xe8, 0xaa, 0x3d,
  0x29, 0xd9, 0x80, 0xbe, 0x23, 0xc3, 0xdc, 0x3d, 0x9a, 0x14, 0x18, 0xbe,
  0x65, 0x87, 0xb2, 0x3d, 0xd3, 0x64, 0xaa, 0xbd, 0x91, 0xf9, 0x30, 0xbe,
  0xbd, 0x7e, 0x25, 0xbe, 0x2f, 0xf2, 0xbc, 0xbd, 0x36, 0xf9, 0x2b, 0x3d,
  0xf0, 0xad, 0x03, 0xbe, 0xcf, 0x6b, 0x28, 0x3d, 0xe9, 0x5c, 0x7b, 0x3d,
  0xb0, 0xc3, 0x1c, 0x3e, 0xad, 0xa3, 0xa3, 0x3c, 0x1e, 0x04, 0xbc, 0xbd,
  0xe5, 0x7a, 0x71, 0xbe, 0x3b, 0x78, 0x89, 0x3d, 0xff, 0x37, 0x52, 0xbe,
  0xa6, 0xe9, 0x21, 0xbe, 0x08, 0xea, 0x1b, 0xbe, 0xcd, 0xf5, 0xab, 0x3d,
  0x8a, 0x34, 0x5f, 0xbe, 0x6c, 0x1c, 0x05, 0x3e, 0x9d, 0x47, 0x67, 0xbe,
  0x86, 0xd7, 0x1b, 0xbd, 0x68, 0xfc, 0xc7, 0xbd, 0xbf, 0x9b, 0xc5, 0x3d,
  0xcc, 0xdf, 0x40, 0x3d, 0xda, 0xe7, 0x4a, 0xbe, 0x13, 0x18, 0x27, 0xbe,
  0xb5, 0x06, 0x6e, 0xbd, 0x2e, 0x1c, 0xdf, 0xbb, 0x84, 0x34, 0x60, 0xbd,
  0x24, 0x45, 0xbf, 0xbd, 0xc3, 0x92, 0x30, 0xbe, 0x67, 0x43, 0x1a, 0xbd,
  0x9a, 0xec, 0x9e, 0x3c, 0x44, 0x85, 0xfa, 0x3d, 0x87, 0xb0, 0x04, 0x3e,
  0xfd, 0xe2, 0x71, 0xbd, 0x5d, 0xdf, 0xc3, 0xba, 0xa7, 0x58, 0x31, 0x3d,
  0xb2, 0x39, 0xc4, 0xbb, 0x86, 0x41, 0x55, 0xbd, 0x8d, 0x73, 0x06, 0xbd,
  0x68, 0x90, 0x74, 0xbe, 0x8e, 0x89, 0x46, 0x3c, 0xee, 0x5e, 0x85, 0xbe,
  0x9c, 0x5b, 0x20, 0x3e, 0x77, 0x42, 0x0f, 0xbe, 0xcf, 0x08, 0xa8, 0xbe,
  0x53, 0xfd, 0xbc, 0x3c, 0x23, 0xf5, 0x71, 0xbe, 0xa8, 0xf4, 0x26, 0x3d,
  0xae, 0x6d, 0x60, 0x3b, 0x3b, 0x70, 0x70, 0xbe, 0x3b, 0xe6, 0x5d, 0xbe,
  0x32, 0x63, 0xc1, 0x3d, 0xbf, 0x67, 0x73, 0xbe, 0xa5, 0xd7, 0x4e, 0xbe,
  0x9d, 0x9e, 0xe9, 0xbd, 0x6a, 0xc7, 0x2a, 0xbe, 0x44, 0xaf, 0x7b, 0xbd,
  0x62, 0x55, 0x3d, 0xbe, 0x84, 0x48, 0x48, 0xbe, 0x53, 0xca, 0xec, 0xbc,
  0x66, 0x6e, 0x99, 0xbe, 0x05, 0xa6, 0x41, 0xbe, 0x6e, 0xe4, 0x0f, 0xbd,
  0x86, 0x5c, 0x00, 0xbc, 0x09, 0xab, 0x52, 0xbd, 0x7f, 0xe1, 0x9b, 0xbe,
  0x4d, 0x35, 0xcd, 0xbd, 0x32, 0x7b, 0x79, 0x3e, 0xe3, 0xb1, 0xae, 0xbd,
  0xdb, 0x06, 0x18, 0x3e, 0xe2, 0x79, 0xd4, 0x3d, 0x5c, 0x48, 0xf9, 0xbd,
  0xf6, 0xef, 0x56, 0xbd, 0x9f, 0xea, 0x87, 0x3e, 0xdc, 0xfd, 0x3c, 0x3e,
  0xb3, 0x64, 0x3f, 0x3d, 0x02, 0xc3, 0x21, 0xbe, 0x85, 0x0a, 0xc3, 0xbd,
  0x24, 0x2d, 0x05, 0x3e, 0x4f, 0x75, 0x89, 0x3c, 0xce, 0x3d, 0x66, 0x3e,
  0x27, 0x2c, 0xa7, 0xbd, 0x33, 0x30, 0x1e, 0xbe, 0x49, 0xd6, 0x4f, 0x3e,
  0xac, 0x3e, 0x3e, 0xbe, 0x8d, 0x26, 0x1e, 0x3e, 0x53, 0xa0, 0xe7, 0xbc,
  0xa0, 0x9d, 0xaf, 0x3c, 0xde, 0x50, 0x9f, 0xbc, 0x75, 0x3a, 0x10, 0xbd,
  0xbb, 0xb7, 0x26, 0xbb, 0x58, 0xee, 0x3b, 0xbe, 0x30, 0x20, 0xf2, 0xbd,
  0x37, 0x7a, 0xef, 0xbe, 0x02, 0x0e, 0x04, 0xbe, 0x35, 0xf7, 0x1a, 0x3d,
  0x80, 0xbb, 0x93, 0x3e, 0xf3, 0xfd, 0x35, 0x3e, 0x44, 0x6a, 0x47, 0xbe,
  0x75, 0x10, 0xa3, 0x3e, 0x9e, 0x78, 0x99, 0xbd, 0x7d, 0xe7, 0x2f, 0x3e,
  0xb8, 0x08, 0x2f, 0x3d, 0xfc, 0xbd, 0xff, 0xbd, 0x8d, 0xd6, 0x80, 0xbe,
  0x58, 0xa2, 0x1b, 0xbe, 0xbd, 0xf5, 0x90, 0xbe, 0x5a, 0xca, 0x20, 0xbe,
  0x85, 0x4e, 0xdc, 0xbd, 0x17, 0x32, 0x92, 0xbe, 0x67, 0x54, 0x80, 0x3d,
  0x68, 0xae, 0x04, 0x3e, 0xb2, 0x3c, 0x9a, 0x3d, 0x69, 0x27, 0x62, 0x3d,
  0x80, 0x10, 0xec, 0x3d, 0x48, 0x81, 0xa9, 0xbb, 0xfc, 0x25, 0x22, 0xbe,
  0x96, 0x29, 0x1b, 0xbd, 0xef, 0x8c, 0x11, 0x3e, 0x56, 0x71, 0x18, 0xbe,
  0xbd, 0xdb, 0x7f, 0xbd, 0x36, 0x77, 0x43, 0xbe, 0x6e, 0xe1, 0x7b, 0xbe,
  0x43, 0x32, 0xa0, 0xbd, 0x48, 0xc3, 0x01, 0xbe, 0x1e, 0x5b, 0x20, 0x3e,
  0xf3, 0xcf, 0x86, 0xbe, 0xaa, 0x27, 0xa5, 0xbe, 0xa5, 0x94, 0x51, 0x3e,
  0xab, 0x40, 0x76, 0xbd, 0xc0, 0x2f, 0x41, 0x3e, 0x41, 0x0f, 0x75, 0x3e,
  0xfb, 0x0b, 0xce, 0xbe, 0x64, 0x84, 0x36, 0x3e, 0xa7, 0xdc, 0x11, 0x3c,
  0x39, 0x3f, 0x30, 0x3c, 0xfb, 0xc5, 0xa2, 0xbd, 0x11, 0x08, 0x84, 0x3d,
  0x66, 0xd7, 0x39, 0x3e, 0xf5, 0x8d, 0x02, 0xbe, 0x6c, 0xe4, 0x3c, 0x3d,
  0x62, 0x60, 0x1c, 0xbe, 0x84, 0x0f, 0x3c, 0x3e, 0x43, 0xed, 0x00, 0x3e,
  0x04, 0x17, 0xb0, 0x3c, 0x17, 0xc0, 0x0c, 0xbe, 0x79, 0xe2, 0x53, 0x3e,
  0x25, 0x45, 0xb4, 0x3e, 0x41, 0xe8, 0xd8, 0xbd, 0xe2, 0xb3, 0x36, 0x3e,
  0xcb, 0xea, 0x27, 0x3e, 0xba, 0xb1, 0x4e, 0xbe, 0x1a, 0x38, 0x61, 0xbd,
  0xfa, 0x16, 0x2e, 0xbc, 0x97, 0x7b, 0xa1, 0xbd, 0x8f, 0xdc, 0x26, 0x3d,
  0xfb, 0xfc, 0xed, 0xbd, 0x8b, 0x10, 0xc3, 0xbd, 0xbe, 0xc7, 0xcc, 0x3d,
  0x50, 0x02, 0xbf, 0x3d, 0xa8, 0x4e, 0x62, 0x3d, 0x5b, 0x1e, 0x82, 0xbc,
  0x6e, 0xde, 0xfc, 0x3b, 0xc1, 0x7c, 0x58, 0xbe, 0x7f, 0x1d, 0xf1, 0xbc,
  0xf1, 0x14, 0xb8, 0xbc, 0x5d, 0xa4, 0x37, 0x3e, 0x03, 0x77, 0x87, 0xbd,
  0x74, 0xca, 0x22, 0x3d, 0xf0, 0x11, 0x97, 0xbe, 0x49, 0xc0, 0xb1, 0xbe,
  0x56, 0x39, 0x39, 0x3e, 0xb0, 0xfa, 0x64, 0x3d, 0x31, 0xde, 0x64, 0xbe,
  0xc2, 0xe3, 0x4f, 0x3d, 0x77, 0xbe, 0x34, 0xbe, 0x3a, 0xef, 0xb7, 0x3d,
  0x3f, 0xfc, 0x75, 0xbd, 0xc8, 0x0d, 0x0c, 0xbf, 0xdc, 0x71, 0x4f, 0xbe,
  0x73, 0x1b, 0xd0, 0x3d, 0xbb, 0x6e, 0x4b, 0xbe, 0xb1, 0xee, 0x89, 0xbe,
  0x77, 0xf2, 0x1c, 0xbe, 0x44, 0xd3, 0xb2, 0xbe, 0x59, 0xce, 0x0e, 0xbe,
  0xc8, 0x22, 0x49, 0xbd, 0x00, 0x88, 0xa0, 0xbd, 0x29, 0x69, 0x06, 0xbd,
  0xff, 0x4f, 0x25, 0xbe, 0x31, 0x2c, 0xd0, 0xbe, 0xcc, 0xbe, 0x3d, 0xbe,
  0x38, 0xdb, 0x18, 0xbf, 0x79, 0xc2, 0x9e, 0xbe, 0x3e, 0x53, 0x21, 0xbc,
  0xd5, 0x72, 0xee, 0x3d, 0xfd, 0x6b, 0x9b, 0xbe, 0x63, 0x82, 0x9d, 0xbd,
  0x7e, 0xdf, 0x29, 0xbe, 0x2b, 0xf3, 0x83, 0xbe, 0x2b, 0xd5, 0xa1, 0xbe,
  0xc8, 0xb4, 0x71, 0x3d, 0x4d, 0xda, 0xcd, 0xba, 0x04, 0xfb, 0x7b, 0xbe,
  0x67, 0x7f, 0xcb, 0xbc, 0x17, 0xeb, 0xc0, 0xbe, 0x06, 0x61, 0x6f, 0xbe,
  0xa3, 0xd1, 0xcd, 0xbe, 0x3a, 0x7e, 0x88, 0xbe, 0xb0, 0x87, 0x40, 0xbe,
  0x52, 0x3e, 0x80, 0xbd, 0x5c, 0x57, 0x44, 0xbe, 0x6a, 0xbb, 0x6f, 0xbe,
  0x46, 0x62, 0xc1, 0xbc, 0x3e, 0x91, 0xf2, 0xbe, 0x64, 0x73, 0x36, 0xbd,
  0x21, 0x7a, 0xa4, 0xbd, 0x1c, 0x03, 0x64, 0x3e, 0xf3, 0x7a, 0x44, 0x3d,
  0x10, 0x58, 0x94, 0xbd, 0x4f, 0x10, 0x5b, 0xbd, 0x19, 0x55, 0xb1, 0xbe,
  0x9b, 0x33, 0xee, 0xbe, 0x02, 0x8c, 0x9a, 0xbc, 0xb4, 0x9e, 0x48, 0xbe,
  0x1b, 0x3e, 0xc0, 0x3c, 0xff, 0x9a, 0xed, 0x3c, 0x2d, 0x0b, 0xce, 0xbe,
  0xaf, 0x3a, 0xc4, 0xbe, 0xf8, 0x00, 0xf2, 0xbe, 0xd7, 0x0c, 0xbc, 0xbd,
  0x9c, 0xd4, 0xfc, 0xbc, 0x81, 0x39, 0xcc, 0xbd, 0xf6, 0xb2, 0x1c, 0xbf,
  0x01, 0x57, 0xb4, 0xbe, 0x52, 0x55, 0x46, 0xbe, 0x60, 0x4e, 0x70, 0xbd,
  0x56, 0x8c, 0xb4, 0xbe, 0x26, 0x78, 0x07, 0xbf, 0x2a, 0x6e, 0xde, 0xbe,
  0x07, 0x78, 0x01, 0xbe, 0x21, 0x5c, 0x4b, 0xbe, 0x47, 0xf4, 0x79, 0x3e,
  0x75, 0xa8, 0x97, 0x3e, 0x29, 0x58, 0x92, 0xbe, 0x89, 0xd7, 0x32, 0x3e,
  0x55, 0xea, 0x52, 0x3d, 0xf9, 0xfd, 0x40, 0x3e, 0xf5, 0x2c, 0x6d, 0xbd,
  0xad, 0x27, 0x82, 0xbc, 0x9e, 0x43, 0x3e, 0x3e, 0x55, 0xff, 0xd5, 0xbd,
  0x15, 0x3b, 0x0a, 0xbd, 0x99, 0xb7, 0x93, 0x3d, 0xe4, 0xdc, 0x09, 0x3d,
  0x32, 0xc7, 0x7d, 0x3c, 0x1e, 0xca, 0x93, 0x3e, 0xd2, 0xf7, 0x15, 0xbe,
  0x70, 0x6f, 0x7b, 0xbc, 0xe7, 0x1f, 0x3d, 0x3d, 0xa1, 0x07, 0xe4, 0xbd,
  0xe7, 0x61, 0xd5, 0xbc, 0x50, 0x8c, 0xbb, 0x3d, 0xe7, 0x59, 0x06, 0x3d,
  0x04, 0x62, 0x86, 0x3e, 0x10, 0xbb, 0x05, 0xbe, 0x6a, 0xb1, 0xb6, 0xbd,
  0x88, 0xe7, 0x54, 0xbe, 0x1e, 0x42, 0x40, 0xbd, 0x38, 0xdc, 0x36, 0x3d,
  0x0f, 0x2d, 0x13, 0x3e, 0x32, 0x91, 0xce, 0x3a, 0xee, 0x37, 0x1e, 0x3e,
  0x40, 0x6f, 0x8d, 0x3d, 0xca, 0x65, 0xdc, 0x3c, 0x1f, 0x2a, 0x07, 0x3e,
  0x0b, 0xbf, 0x8f, 0x3e, 0x70, 0x47, 0xc1, 0x3d, 0x8f, 0x37, 0x86, 0x3d,
  0x91, 0x86, 0x06, 0xbc, 0xba, 0xcf, 0x4c, 0x3e, 0xe1, 0x01, 0x3b, 0xbe,
  0x0b, 0xdd, 0x47, 0x3d, 0x12, 0xae, 0x53, 0x3d, 0xbe, 0x1d, 0x5b, 0x3c,
  0xc9, 0xe8, 0x18, 0x3c, 0x1f, 0x00, 0x25, 0x3e, 0x66, 0x6e, 0x47, 0x3d,
  0xf9, 0x9d, 0x86, 0x3d, 0x27, 0xe6, 0xcf, 0xbc, 0x4a, 0xfe, 0xff, 0xff,
  0x10, 0x00, 0x00, 0x00, 0x05, 0x00, 0x00, 0x00, 0x14, 0x00, 0x00, 0x00,
  0x2c, 0x00, 0x00, 0x00, 0x02, 0x00, 0x00, 0x00, 0x10, 0x00, 0x00, 0x00,
  0x70, 0x00, 0x00, 0x00, 0x17, 0x00, 0x00, 0x00, 0x73, 0x65, 0x71, 0x75,
  0x65, 0x6e, 0x74, 0x69, 0x61, 0x6c, 0x2f, 0x64, 0x65, 0x6e, 0x73, 0x65,
  0x2f, 0x4d, 0x61, 0x74, 0x4d, 0x75, 0x6c, 0x00, 0x38, 0xfe, 0xff, 0xff,
  0x2e, 0xff, 0xff, 0xff, 0x04, 0x00, 0x00, 0x00, 0x08, 0x00, 0x00, 0x00,
  0xff, 0xff, 0xff, 0xff, 0x70, 0x00, 0x00, 0x00, 0x00, 0x00, 0x0e, 0x00,
  0x18, 0x00, 0x08, 0x00, 0x07, 0x00, 0x0c, 0x00, 0x10, 0x00, 0x14, 0x00,
  0x0e, 0x00, 0x00, 0x00, 0x00, 0x00, 0x00, 0x02, 0x10, 0x00, 0x00, 0x00,
  0x04, 0x00, 0x00, 0x00, 0x10, 0x00, 0x00, 0x00, 0x2c, 0x00, 0x00, 0x00,
  0x01, 0x00, 0x00, 0x00, 0x02, 0x00, 0x00, 0x00, 0x18, 0x00, 0x00, 0x00,
  0x73, 0x65, 0x71, 0x75, 0x65, 0x6e, 0x74, 0x69, 0x61, 0x6c, 0x2f, 0x66,
  0x6c, 0x61, 0x74, 0x74, 0x65, 0x6e, 0x2f, 0x43, 0x6f, 0x6e, 0x73, 0x74,
  0x00, 0x00, 0x00, 0x00, 0xa0, 0xfe, 0xff, 0xff, 0x96, 0xff, 0xff, 0xff,
  0x04, 0x00, 0x00, 0x00, 0x0c, 0x00, 0x00, 0x00, 0x26, 0x35, 0x3e, 0xc0,
  0x23, 0x35, 0x2c, 0x40, 0x28, 0xc2, 0xc0, 0xbe, 0x0a, 0xff, 0xff, 0xff,
  0x10, 0x00, 0x00, 0x00, 0x03, 0x00, 0x00, 0x00, 0x10, 0x00, 0x00, 0x00,
  0x3c, 0x00, 0x00, 0x00, 0x01, 0x00, 0x00, 0x00, 0x03, 0x00, 0x00, 0x00,
  0x29, 0x00, 0x00, 0x00, 0x73, 0x65, 0x71, 0x75, 0x65, 0x6e, 0x74, 0x69,
  0x61, 0x6c, 0x2f, 0x64, 0x65, 0x6e, 0x73, 0x65, 0x5f, 0x31, 0x2f, 0x42,
  0x69, 0x61, 0x73, 0x41, 0x64, 0x64, 0x2f, 0x52, 0x65, 0x61, 0x64, 0x56,
  0x61, 0x72, 0x69, 0x61, 0x62, 0x6c, 0x65, 0x4f, 0x70, 0x00, 0x00, 0x00,
  0x60, 0xff, 0xff, 0xff, 0x00, 0x00, 0x06, 0x00, 0x08, 0x00, 0x04, 0x00,
  0x06, 0x00, 0x00, 0x00, 0x04, 0x00, 0x00, 0x00, 0x40, 0x00, 0x00, 0x00,
  0xcf, 0xe1, 0x2d, 0xbe, 0x7e, 0x59, 0x74, 0x3f, 0x3d, 0x12, 0x08, 0x40,
  0xec, 0x13, 0xa6, 0x40, 0x60, 0x5f, 0x74, 0xbe, 0x84, 0x91, 0x75, 0x3f,
  0x53, 0x8d, 0x1d, 0xbf, 0xa0, 0x97, 0x59, 0x40, 0xf1, 0x19, 0xed, 0xbd,
  0xa9, 0xce, 0x0d, 0xbe, 0xd5, 0x96, 0xa4, 0x40, 0x6f, 0x73, 0x4c, 0xbd,
  0x15, 0xc2, 0xea, 0xbd, 0x94, 0x51, 0x24, 0xbe, 0x7c, 0x5a, 0x06, 0xbf,
  0x34, 0x4b, 0xe4, 0xbf, 0xae, 0xff, 0xff, 0xff, 0x10, 0x00, 0x00, 0x00,
  0x02, 0x00, 0x00, 0x00, 0x10, 0x00, 0x00, 0x00, 0x3c, 0x00, 0x00, 0x00,
  0x01, 0x00, 0x00, 0x00, 0x10, 0x00, 0x00, 0x00, 0x27, 0x00, 0x00, 0x00,
  0x73, 0x65, 0x71, 0x75, 0x65, 0x6e, 0x74, 0x69, 0x61, 0x6c, 0x2f, 0x64,
  0x65, 0x6e, 0x73, 0x65, 0x2f, 0x42, 0x69, 0x61, 0x73, 0x41, 0x64, 0x64,
  0x2f, 0x52, 0x65, 0x61, 0x64, 0x56, 0x61, 0x72, 0x69, 0x61, 0x62, 0x6c,
  0x65, 0x4f, 0x70, 0x00, 0x04, 0x00, 0x06, 0x00, 0x04, 0x00, 0x00, 0x00,
  0x00, 0x00, 0x0e, 0x00, 0x14, 0x00, 0x04, 0x00, 0x00, 0x00, 0x08, 0x00,
  0x0c, 0x00, 0x10, 0x00, 0x0e, 0x00, 0x00, 0x00, 0x10, 0x00, 0x00, 0x00,
  0x01, 0x00, 0x00, 0x00, 0x1c, 0x00, 0x00, 0x00, 0x2c, 0x00, 0x00, 0x00,
  0x04, 0x00, 0x00, 0x00, 0x01, 0x00, 0x00, 0x00, 0x40, 0x00, 0x00, 0x00,
  0x03, 0x00, 0x00, 0x00, 0x01, 0x00, 0x00, 0x00, 0x0c, 0x00, 0x00, 0x00,
  0x63, 0x6f, 0x6e, 0x76, 0x32, 0x64, 0x5f, 0x69, 0x6e, 0x70, 0x75, 0x74,
  0x00, 0x00, 0x00, 0x00, 0xfc, 0xff, 0xff, 0xff, 0x04, 0x00, 0x04, 0x00,
  0x04, 0x00, 0x00, 0x00

};


unsigned int model_tflite_len = 12316;// Fill the int in `src/model.cc` here